#include "include.h"

#if ASR_RECOG_EN

#define TRACE_EN                    0

#if TRACE_EN
#define TRACE(...)                  printf(__VA_ARGS__)
#else
#define TRACE(...)
#endif

#define BASE_ADDR   WEIGHT_BIN_ADDR
#define BASE_LEN    WEIGHT_DATA_LEN

///语音识别处理例程，客户根据需要修改命令列表和处理流程
#define ASR_CMD_NUM         49
#define ASR_CMD_LEN         18

static const char str_asr_cmd[ASR_CMD_NUM][ASR_CMD_LEN] = {
    "小艾小艾",
    "小艾你好",
    "打开风扇",
    "关闭风扇",
    "打开上下摇头",
    "关闭上下摇头",
    "打开摇头",
    "关闭摇头",
    "打开左右摇头",
    "关闭左右摇头",
    "定时一小时",
    "定时二小时",
    "定时三小时",
    "定时四小时",
    "定时五小时",
///...
};

///处理识别结果，注意耗时不要太长，耗时太长的操作可以放到main process中进行
void asr_result_deal(const char *result)
{
    int i;
    for (i = 0; i < ASR_CMD_NUM; i++) {
        if (strcmp(result, str_asr_cmd[i]) == 0) {
            break;
        }
    }
//    printf("asr deal:%x\n", i);
    switch (i) {
        case ASR_CMD_1_CASE:
            break;

        case ASR_CMD_2_CASE:
            break;

        case ASR_CMD_3_CASE:
            // mp3_res_play(RES_BUF_EN_POWERON_MP3, RES_LEN_EN_POWERON_MP3);
            break;
        ///...

        default:
            break;
    }
}

void kws_stop(void)
{

}

void kws_start(void)
{

}

void bsp_asr_restart(void)
{
    kws_start();
    sys_cb.asr_en = 1;
}

///ASR启动
void bsp_asr_start(void)
{
    kws_start();
    if(get_cur_sysclk() < SYS_192M){
        sys_clk_set(SYS_192M);
    }
    sys_cb.asr_en = 1;
}

///ASR停止
void bsp_asr_stop(void)
{
    sys_cb.asr_en = 0;
}

///ASR初始化
void bsp_asr_init(void)
{

}
#endif // ASR_RECOG_EN

#if 0   //tdnn测试接口

const int8_t tdnn_weight_table[16384] = {
	0x02, 0xFB, 0xF6, 0xFD, 0xFD, 0xFD, 0x0A, 0x04, 0xFF, 0xFC, 0xFC, 0xFC, 0xFE, 0x0F, 0x10, 0xFF, 
	0xFC, 0x01, 0x0C, 0x0D, 0x0C, 0x06, 0x02, 0x0F, 0x23, 0x4B, 0x2D, 0xC8, 0x81, 0xB3, 0xF6, 0xE6, 
	0xDF, 0x0C, 0x1A, 0x06, 0x05, 0x16, 0x05, 0x11, 0x02, 0xFE, 0x0B, 0x03, 0x00, 0x04, 0x03, 0x00, 
	0x02, 0x07, 0x07, 0x06, 0xF9, 0xF3, 0xF5, 0xFD, 0x05, 0xFC, 0xF2, 0xED, 0xE2, 0xE2, 0xD3, 0xCC, 
	0xD8, 0xFA, 0x31, 0x44, 0x36, 0x4A, 0x55, 0x29, 0xFB, 0xF9, 0x04, 0xF4, 0xE3, 0xE1, 0xE9, 0xF4, 
	0x02, 0xFD, 0xF8, 0x0A, 0x04, 0xFB, 0x05, 0x00, 0x00, 0xFC, 0xFE, 0xF8, 0xFE, 0x01, 0x02, 0x00, 
	0xFD, 0xFE, 0x04, 0x11, 0x0B, 0x0A, 0x0B, 0x02, 0xF1, 0xD8, 0xE5, 0x0A, 0x10, 0x02, 0xFE, 0xFE, 
	0x03, 0x05, 0x02, 0x01, 0x03, 0x00, 0x03, 0xFE, 0x10, 0xFF, 0x13, 0x09, 0x12, 0x22, 0x3B, 0x50, 
	0x32, 0xF8, 0xBE, 0x9F, 0x9D, 0xA0, 0xA0, 0xA9, 0xB4, 0xB9, 0xD0, 0xE8, 0x0B, 0x19, 0x28, 0x2E, 
	0x2F, 0x20, 0x11, 0x1E, 0x0E, 0x03, 0x0B, 0x0D, 0x08, 0x04, 0xEE, 0xEE, 0xF9, 0x0A, 0xFE, 0x27, 
	0x03, 0xFC, 0x10, 0xFE, 0xF3, 0xF7, 0xE8, 0xF3, 0xF3, 0xFF, 0xED, 0xF0, 0xFA, 0x05, 0xFB, 0x0B, 
	0x12, 0x12, 0x15, 0x07, 0xF5, 0xE6, 0xE0, 0xD7, 0xF7, 0xFA, 0xEC, 0x09, 0x01, 0xF5, 0xFC, 0xFD, 
	0x1A, 0x1B, 0xFB, 0xFE, 0x08, 0x1A, 0xF1, 0xF6, 0xFA, 0xF5, 0x12, 0x03, 0xFB, 0xE9, 0xC1, 0xB9, 
	0xCC, 0x09, 0x36, 0x69, 0x75, 0x7F, 0x77, 0x53, 0x48, 0x31, 0x27, 0x10, 0xF2, 0xE4, 0xD6, 0xD4, 
	0xDC, 0xE1, 0xD3, 0xF3, 0xFB, 0x00, 0xF3, 0xDE, 0xE8, 0x04, 0x14, 0x0B, 0x00, 0x0C, 0xEA, 0xFB, 
	0x43, 0x13, 0x14, 0x1D, 0x0A, 0x28, 0x24, 0xF1, 0xDF, 0xE9, 0xFB, 0x02, 0xFB, 0xF3, 0x01, 0x02, 
	0x02, 0x01, 0xEE, 0xEF, 0x0B, 0x05, 0xFC, 0xF6, 0xF0, 0xED, 0xEF, 0xDD, 0xFA, 0x2C, 0x1D, 0x01, 
	0x06, 0x07, 0xF5, 0xFF, 0x00, 0xF9, 0xD8, 0x1F, 0x33, 0x1E, 0x1F, 0x32, 0x11, 0x44, 0x74, 0x78, 
	0x6F, 0x7F, 0x6B, 0x7A, 0x53, 0x60, 0x4E, 0x18, 0x19, 0x10, 0x0C, 0x07, 0x06, 0x0D, 0x0E, 0x01, 
	0xF5, 0x0D, 0x32, 0x16, 0x15, 0xF7, 0xE8, 0xF5, 0xF6, 0x04, 0xE9, 0xE5, 0xE0, 0xD6, 0xE3, 0x41, 
	0xD1, 0xCC, 0xB4, 0xDD, 0x9F, 0x8A, 0x8D, 0xA6, 0x9B, 0x8E, 0xA0, 0xA1, 0xA8, 0xBE, 0xC2, 0xD2, 
	0xF9, 0xFE, 0x00, 0xEB, 0x00, 0x05, 0x0B, 0x1A, 0x02, 0xFC, 0x12, 0x02, 0xE4, 0xD9, 0xD2, 0xF3, 
	0x09, 0x02, 0x09, 0x04, 0x11, 0x23, 0xED, 0x09, 0xEE, 0x3F, 0x21, 0x0B, 0x13, 0xBF, 0xEB, 0xE9, 
	0xEF, 0xF6, 0x0D, 0x10, 0xFD, 0xFC, 0xF8, 0xF2, 0x04, 0xFC, 0x01, 0xFF, 0x07, 0x11, 0x0F, 0xFB, 
	0xF4, 0xF9, 0xF9, 0xFC, 0x0E, 0x06, 0xE3, 0xF5, 0x06, 0xFE, 0x02, 0xF7, 0xFE, 0x09, 0x10, 0xFD, 
	0x17, 0x7F, 0x44, 0xE6, 0xD9, 0xAF, 0xB7, 0xCB, 0xDA, 0xF1, 0xEF, 0x09, 0x06, 0x1A, 0x0D, 0xFC, 
	0xF6, 0xF6, 0x0C, 0x0B, 0xFB, 0xF4, 0xFC, 0x04, 0x0B, 0x05, 0x19, 0x18, 0x01, 0xFF, 0xF6, 0xF6, 
	0x07, 0x0C, 0x09, 0xF2, 0xFF, 0xF9, 0x12, 0xEA, 0x04, 0x27, 0x20, 0x29, 0x01, 0xEC, 0xEA, 0xEE, 
	0xF1, 0x09, 0x0F, 0xFC, 0xF8, 0x02, 0x01, 0x05, 0xFB, 0xF4, 0xFD, 0x00, 0xFE, 0x06, 0x0A, 0x14, 
	0xFB, 0xEF, 0xFB, 0x01, 0xFF, 0x04, 0x06, 0x11, 0x03, 0x03, 0x08, 0x02, 0x0B, 0xFF, 0x19, 0xE8, 
	0x01, 0xFB, 0x01, 0x00, 0x00, 0x04, 0x00, 0x02, 0xFE, 0xFF, 0x02, 0x02, 0x01, 0x03, 0xFF, 0x01, 
	0xFF, 0x02, 0x03, 0xFB, 0xEA, 0x00, 0x1C, 0xFB, 0xC0, 0xEC, 0x7F, 0xF5, 0x9C, 0x0C, 0x4C, 0xF6, 
	0xDC, 0x19, 0x12, 0xF3, 0xF5, 0x00, 0xFE, 0xFF, 0x01, 0xFD, 0x03, 0x03, 0xFF, 0x01, 0x00, 0x02, 
	0x02, 0x04, 0x01, 0x02, 0xFE, 0xFF, 0xFB, 0xFE, 0xFF, 0x03, 0xFF, 0xF4, 0xED, 0x0E, 0x1B, 0xEF, 
	0xD1, 0x1F, 0x68, 0xCE, 0xA9, 0x35, 0x3E, 0xCF, 0xE1, 0x21, 0x04, 0xEE, 0x02, 0x02, 0xF8, 0x07, 
	0xFC, 0x01, 0x09, 0xFF, 0x01, 0x00, 0xFA, 0x01, 0xFD, 0x02, 0x03, 0x03, 0x00, 0xFC, 0xFF, 0xFE, 
	0xFF, 0x02, 0xFF, 0xFF, 0x03, 0x01, 0xFF, 0xF9, 0x03, 0x16, 0x07, 0xE0, 0xF2, 0x22, 0xFA, 0xEE, 
	0x01, 0x06, 0xF7, 0x00, 0x0A, 0x03, 0xFD, 0x04, 0xFC, 0x06, 0x03, 0x01, 0x04, 0xF6, 0xE8, 0xFA, 
	0x04, 0x09, 0x05, 0xFF, 0x03, 0x04, 0x01, 0x03, 0x02, 0x02, 0x00, 0x00, 0x00, 0xFD, 0x00, 0x02, 
	0x03, 0x01, 0x02, 0x00, 0xFE, 0x02, 0xFD, 0xFD, 0xFF, 0x00, 0x01, 0xFF, 0x01, 0x00, 0xFD, 0x05, 
	0xFF, 0x02, 0x04, 0xF8, 0x06, 0xF8, 0xEC, 0xFB, 0xFE, 0x09, 0x07, 0x02, 0xFA, 0xF9, 0xFA, 0x01, 
	0x03, 0xFF, 0x02, 0xFF, 0x03, 0x01, 0xFE, 0xFC, 0xFD, 0xFB, 0x04, 0x00, 0xFF, 0xFC, 0xFF, 0x03, 
	0x04, 0x05, 0x02, 0x02, 0x02, 0x02, 0x00, 0xFA, 0xFE, 0xFE, 0xF4, 0xF5, 0xF2, 0x34, 0x7F, 0x2A, 
	0xE5, 0xC2, 0xF3, 0xFD, 0x08, 0xFA, 0xFD, 0xFB, 0x01, 0xFD, 0xFC, 0xFA, 0x01, 0x00, 0x05, 0xFE, 
	0x05, 0x00, 0xFA, 0xF8, 0x05, 0x05, 0x01, 0x00, 0xFD, 0xF4, 0xFA, 0x09, 0x00, 0x03, 0x01, 0xFC, 
	0x01, 0xFD, 0x00, 0x04, 0x04, 0x02, 0x00, 0x01, 0xFF, 0x03, 0xFF, 0x02, 0xFD, 0xFE, 0x00, 0x00, 
	0x08, 0xFF, 0x05, 0x03, 0xFF, 0xFE, 0xF6, 0xF6, 0x00, 0x06, 0x05, 0x05, 0x10, 0xFE, 0xEB, 0xEA, 
	0x1A, 0x52, 0x38, 0xD8, 0x81, 0x95, 0x24, 0x47, 0xFD, 0xFB, 0x02, 0x05, 0xFF, 0x00, 0xFC, 0xFC, 
	0xFF, 0x04, 0xFD, 0x04, 0xFD, 0x00, 0xFD, 0xFD, 0xFF, 0x00, 0x08, 0x04, 0xFD, 0x01, 0x02, 0xFE, 
	0x04, 0x04, 0xFE, 0xFD, 0x14, 0xFA, 0xE6, 0xF1, 0x20, 0x42, 0x34, 0xEF, 0xAF, 0xB7, 0x1B, 0x29, 
	0x02, 0xFC, 0xFB, 0x06, 0x08, 0xFF, 0xFA, 0xFC, 0xFF, 0x01, 0x02, 0x03, 0xFF, 0xFF, 0x02, 0xFE, 
	0xFD, 0xFE, 0x02, 0x01, 0x00, 0xFF, 0x06, 0xFD, 0x02, 0xFD, 0xFF, 0x01, 0x02, 0xF6, 0xFC, 0x03, 
	0xFB, 0xF5, 0xFE, 0x0D, 0x0B, 0x07, 0x0B, 0xF2, 0x0C, 0x0B, 0xEC, 0x22, 0x02, 0xFE, 0x0E, 0x13, 
	0x22, 0x5F, 0x52, 0x6C, 0x52, 0x54, 0x63, 0x70, 0x7F, 0x7C, 0x66, 0x44, 0x5B, 0x43, 0x26, 0x27, 
	0x08, 0x09, 0x19, 0x15, 0x0E, 0x20, 0x07, 0xF6, 0xF3, 0xED, 0xFE, 0xF0, 0xF7, 0x00, 0xEF, 0x16, 
	0x04, 0x2B, 0xF5, 0xF4, 0xE9, 0xE2, 0xE9, 0xDE, 0xD2, 0xA5, 0x9C, 0x9F, 0x95, 0xA4, 0x99, 0x9A, 
	0x9B, 0x95, 0xA1, 0xA9, 0xB6, 0xD4, 0xD7, 0xD8, 0xE8, 0xD9, 0xE5, 0xEF, 0xE4, 0xDA, 0xE9, 0x09, 
	0x0E, 0x08, 0x13, 0x0A, 0x1C, 0x20, 0x22, 0xF4, 0x03, 0x28, 0x08, 0x12, 0x0F, 0x02, 0x0E, 0x07, 
	0x05, 0xE5, 0xE8, 0xF2, 0x0C, 0x09, 0x0B, 0xF8, 0xF4, 0xEC, 0x05, 0xFE, 0x01, 0xF5, 0xF5, 0x06, 
	0x1C, 0x14, 0x06, 0xF6, 0x04, 0x0B, 0xF1, 0x0B, 0x04, 0x00, 0x22, 0x0B, 0xEB, 0xDD, 0x07, 0xE2, 
	0xFC, 0x1A, 0xDD, 0x01, 0xFA, 0xF8, 0x02, 0x24, 0x17, 0x12, 0x0F, 0x15, 0x05, 0xF7, 0xF1, 0xEA, 
	0xF8, 0xEF, 0xF6, 0xFD, 0x01, 0xEF, 0xE2, 0xED, 0x00, 0xFB, 0xFC, 0xE4, 0xEC, 0xDF, 0xFD, 0x27, 
	0x07, 0x04, 0x03, 0xF4, 0xF9, 0x11, 0xF8, 0x2D, 0x2A, 0x27, 0x05, 0x26, 0x0F, 0x0F, 0x1D, 0x18, 
	0x25, 0x3D, 0x4C, 0x78, 0x70, 0x6E, 0x66, 0x70, 0x79, 0x56, 0x48, 0x2B, 0x37, 0x34, 0x21, 0x32, 
	0x32, 0x16, 0x36, 0x38, 0x2A, 0x2A, 0x0D, 0xED, 0xF2, 0x0F, 0x09, 0x02, 0xF9, 0xE4, 0xE3, 0x14, 
	0x04, 0x0A, 0x06, 0xE7, 0xF1, 0xD6, 0xF9, 0xBA, 0xBE, 0xA5, 0x96, 0x81, 0x94, 0xA1, 0x9B, 0xA2, 
	0xA8, 0xB4, 0xB8, 0xC8, 0xD8, 0x01, 0xE1, 0xD4, 0xE1, 0xD5, 0xE1, 0xE9, 0xEB, 0xDF, 0xEA, 0xF7, 
	0xF3, 0xFE, 0x04, 0x18, 0x09, 0x12, 0xEE, 0x16, 0x00, 0x04, 0xF7, 0x07, 0x0A, 0xFA, 0xFF, 0xFC, 
	0xFB, 0xFF, 0x04, 0x01, 0x03, 0x12, 0x24, 0x10, 0xE2, 0xBB, 0xB1, 0xCD, 0xFA, 0x1E, 0x12, 0xFA, 
	0xF0, 0xF1, 0xF1, 0xE5, 0xF9, 0x20, 0x33, 0x10, 0xFA, 0x09, 0x0A, 0x00, 0xFF, 0xFE, 0x05, 0xFA, 
	0xFA, 0xF5, 0xF7, 0xFA, 0x06, 0xFE, 0x07, 0x06, 0xFD, 0xFB, 0xFB, 0xEE, 0xE0, 0xD6, 0xE0, 0x01, 
	0x36, 0x6C, 0x7F, 0x64, 0x17, 0xD6, 0xD2, 0xED, 0xFC, 0x0F, 0x20, 0xF9, 0xD8, 0xF2, 0x1C, 0x14, 
	0xEC, 0xF6, 0x08, 0xFE, 0xF1, 0xF2, 0xFC, 0xF8, 0xF9, 0x0B, 0x12, 0xF7, 0x0B, 0x05, 0xFF, 0xFC, 
	0xFF, 0xFD, 0xFD, 0x02, 0x06, 0x0A, 0x0F, 0x0C, 0xF9, 0xE8, 0xDD, 0xE2, 0xF2, 0x02, 0x0E, 0x0E, 
	0x0D, 0x0F, 0x18, 0x0C, 0xFA, 0xEA, 0xE0, 0xF4, 0xFB, 0xF4, 0x01, 0xFF, 0x02, 0x06, 0x08, 0x10, 
	0x12, 0xB4, 0xF5, 0x38, 0x2F, 0x68, 0xEE, 0xA9, 0xBE, 0xE3, 0x1A, 0x11, 0xFA, 0x0A, 0x11, 0x06, 
	0xF4, 0x00, 0x09, 0xFE, 0xEF, 0xF9, 0x0C, 0x08, 0xF4, 0x0A, 0x0F, 0xF5, 0x05, 0x10, 0x03, 0xE9, 
	0xF0, 0x08, 0x06, 0xFF, 0x04, 0xE7, 0x0D, 0xF5, 0xEF, 0x02, 0x05, 0x7F, 0x5F, 0x6E, 0xEC, 0xA5, 
	0xA9, 0xDD, 0x19, 0x02, 0xED, 0xEC, 0xF3, 0xF5, 0xEE, 0xF1, 0xF3, 0xF5, 0xF1, 0xDE, 0x07, 0x1A, 
	0x05, 0x00, 0xED, 0xEC, 0x01, 0x06, 0x0C, 0xFC, 0xE8, 0xF6, 0x01, 0x03, 0x11, 0xF3, 0x19, 0xFE, 
	0xEF, 0x09, 0x0A, 0x30, 0x0E, 0x1B, 0xF1, 0xDB, 0xE1, 0xEF, 0x06, 0xF8, 0xFC, 0xF9, 0x06, 0xFE, 
	0x0A, 0x03, 0x06, 0x0F, 0x04, 0xF3, 0x00, 0x03, 0x01, 0xFB, 0xFF, 0x07, 0x05, 0xEF, 0x01, 0x0C, 
	0xFA, 0x0A, 0x09, 0xFC, 0xFF, 0xF1, 0x28, 0xE9, 0xFE, 0x0A, 0x02, 0xFD, 0xFE, 0x03, 0x00, 0xEF, 
	0xD8, 0xC4, 0xE2, 0xFC, 0x10, 0x12, 0x06, 0xFF, 0xFA, 0x01, 0x06, 0x08, 0x01, 0xFF, 0x00, 0x00, 
	0xF7, 0xF3, 0xF6, 0x04, 0x06, 0xFC, 0xF4, 0xFC, 0x01, 0xFC, 0x02, 0x11, 0x0C, 0x03, 0x04, 0x03, 
	0xFF, 0x01, 0xEF, 0xE7, 0xDD, 0xCD, 0xFB, 0x3B, 0x71, 0x7F, 0x3F, 0x15, 0xE7, 0xD9, 0xDD, 0xF4, 
	0xF7, 0xFB, 0xF7, 0xFE, 0xF1, 0xF8, 0x02, 0x08, 0x0B, 0xFA, 0xEE, 0x05, 0x24, 0x09, 0xF8, 0xFB, 
	0x10, 0x00, 0xF3, 0xF7, 0xFC, 0xFB, 0x03, 0xEA, 0xFD, 0x0E, 0x15, 0x03, 0xFF, 0x00, 0xF4, 0xEE, 
	0xEF, 0xF5, 0xFA, 0x01, 0x07, 0x07, 0x06, 0x06, 0x04, 0xFF, 0x04, 0x02, 0x06, 0x02, 0x00, 0xFC, 
	0x01, 0x08, 0x03, 0xF5, 0xF9, 0xF5, 0xFA, 0xFB, 0xFA, 0x01, 0x05, 0x00, 0x02, 0x03, 0x06, 0x01, 
	0x01, 0x05, 0xF7, 0xFF, 0x06, 0x01, 0x04, 0xFD, 0xFF, 0xFC, 0x01, 0x02, 0xFD, 0x03, 0x04, 0xFC, 
	0xFA, 0x00, 0xFC, 0x07, 0x0D, 0xF6, 0x05, 0x19, 0xF1, 0xC9, 0x07, 0x6E, 0xE2, 0x90, 0x24, 0x65, 
	0xBE, 0xB9, 0x4E, 0x16, 0xDB, 0x00, 0xFC, 0x02, 0x03, 0x05, 0xF6, 0x08, 0x01, 0x01, 0xFE, 0xFE, 
	0xFD, 0x03, 0x01, 0x03, 0x02, 0x02, 0xFF, 0xFC, 0xFE, 0x00, 0xFD, 0x04, 0x0F, 0xF9, 0xFC, 0x0D, 
	0xFE, 0xD0, 0xE3, 0x62, 0x1D, 0x8F, 0xF5, 0x7F, 0xDA, 0x9C, 0x42, 0x37, 0xE0, 0xFA, 0xF2, 0x08, 
	0xFF, 0xFC, 0xF4, 0x08, 0x06, 0xFD, 0x01, 0xFE, 0x00, 0xFF, 0x03, 0x01, 0x02, 0x00, 0x01, 0xFE, 
	0xFF, 0xFF, 0xFD, 0xFF, 0x00, 0xFC, 0xFA, 0x01, 0x15, 0xFF, 0xD8, 0x06, 0x36, 0xEA, 0xDA, 0x17, 
	0x17, 0xE5, 0x00, 0x06, 0x08, 0xFF, 0xF3, 0x07, 0x02, 0xFC, 0xFD, 0x03, 0x04, 0x02, 0xFC, 0x02, 
	0x02, 0x01, 0xFB, 0x01, 0xFE, 0xFE, 0x02, 0x06, 0x03, 0x01, 0x02, 0x00, 0x02, 0xFF, 0x00, 0x02, 
	0x00, 0x05, 0x04, 0xFE, 0x01, 0xF8, 0x0B, 0x4D, 0x37, 0xD3, 0x96, 0x81, 0xF9, 0x3D, 0x3B, 0xFA, 
	0x01, 0x04, 0x01, 0x09, 0xFF, 0x00, 0xFF, 0xFD, 0x00, 0xFE, 0xFE, 0x02, 0xFF, 0x03, 0xFF, 0x00, 
	0xFF, 0x03, 0xFD, 0xFD, 0xFC, 0xFE, 0x04, 0x05, 0x04, 0xFC, 0x00, 0x02, 0x08, 0xFF, 0x06, 0x1E, 
	0x16, 0xEE, 0xCD, 0xCC, 0x06, 0x21, 0x19, 0xFB, 0x00, 0x00, 0xFF, 0x03, 0x00, 0xFE, 0xFF, 0xFE, 
	0xFE, 0xFE, 0xFF, 0x03, 0xFF, 0xFE, 0xFC, 0xFE, 0x00, 0xFF, 0x01, 0x01, 0x02, 0x01, 0x00, 0xFE, 
	0xFD, 0xFD, 0x03, 0x06, 0x03, 0xF8, 0xFA, 0xFA, 0xFA, 0x0B, 0x10, 0x08, 0x07, 0xFD, 0xF7, 0x00, 
	0x19, 0xE8, 0x13, 0x0B, 0x12, 0x04, 0x07, 0xFC, 0x15, 0x05, 0x01, 0xF3, 0x0B, 0x03, 0x0D, 0xFA, 
	0x02, 0xF9, 0x04, 0x10, 0x01, 0x03, 0x06, 0xF9, 0x01, 0xFB, 0x04, 0xF5, 0xF3, 0xF9, 0x0B, 0x06, 
	0xEA, 0xFB, 0xF1, 0xEF, 0xC8, 0x84, 0x5F, 0x93, 0x24, 0xFE, 0x24, 0x18, 0x19, 0x0F, 0x00, 0x08, 
	0x12, 0x0A, 0xFB, 0x03, 0xF9, 0x0B, 0x04, 0x00, 0xFF, 0x01, 0x05, 0x07, 0xFF, 0xF9, 0x01, 0xF1, 
	0x0B, 0xFF, 0x01, 0x06, 0xF5, 0xF3, 0x01, 0xF3, 0x07, 0x0E, 0x04, 0x06, 0x00, 0xAE, 0x70, 0xAF, 
	0x33, 0x04, 0x0A, 0x03, 0x0C, 0xFC, 0xF6, 0xEC, 0xFC, 0xFD, 0xFA, 0xFD, 0xF7, 0x08, 0x01, 0xFA, 
	0x00, 0xFA, 0x09, 0x09, 0xF7, 0x05, 0xFE, 0xFD, 0xFC, 0xFB, 0xFA, 0x08, 0xF3, 0xEF, 0x08, 0xFD, 
	0x0A, 0x03, 0xFF, 0x0F, 0xED, 0xCA, 0x7F, 0xCA, 0xF8, 0xE8, 0x02, 0x09, 0x28, 0x23, 0x3C, 0x27, 
	0x1E, 0x15, 0x06, 0xF0, 0xE9, 0xD9, 0xE2, 0xE8, 0xE4, 0xEC, 0xD6, 0xE0, 0xEB, 0x0F, 0x3B, 0x2E, 
	0x1D, 0x3C, 0x5F, 0x57, 0x5C, 0x6B, 0x64, 0x4C, 0x16, 0x0F, 0x23, 0x0A, 0x18, 0x06, 0x2F, 0x72, 
	0xEE, 0xEC, 0x04, 0x0B, 0x19, 0x0C, 0x22, 0x06, 0x14, 0x27, 0x1C, 0x1E, 0x15, 0x0C, 0x24, 0x35, 
	0x2D, 0x1A, 0x13, 0x07, 0xFF, 0x0D, 0x20, 0x0F, 0xF3, 0x04, 0x13, 0x11, 0x16, 0x04, 0x0C, 0x0B, 
	0x1B, 0x0C, 0xEF, 0xBB, 0xDF, 0xDA, 0x05, 0x08, 0x03, 0x0E, 0xE7, 0xFE, 0x0F, 0xCA, 0xD6, 0xD4, 
	0xE0, 0xD4, 0xEB, 0xEC, 0xFF, 0xFE, 0x03, 0xFA, 0xF5, 0x04, 0x14, 0x07, 0xFB, 0xD1, 0xB9, 0xBC, 
	0xC1, 0xDB, 0xA8, 0x86, 0x8F, 0x86, 0xA7, 0xC4, 0xD4, 0xE3, 0xFC, 0xF0, 0x0A, 0xF4, 0x1F, 0x81, 
	0x3D, 0x92, 0x14, 0x81, 0xE9, 0x18, 0xF3, 0xF7, 0x01, 0x09, 0x0B, 0x11, 0x15, 0x1F, 0xF9, 0x1D, 
	0x18, 0x07, 0xFB, 0xFF, 0x12, 0x11, 0x0C, 0x0E, 0x00, 0x01, 0xFB, 0xEF, 0xE2, 0xDE, 0xDB, 0xD6, 
	0xDC, 0xE6, 0xEE, 0xFA, 0x09, 0xF2, 0xF2, 0x5F, 0x0E, 0xE6, 0x0E, 0xB9, 0xD5, 0x0E, 0x0D, 0x02, 
	0xE6, 0xF2, 0x14, 0x27, 0xFE, 0x0D, 0x03, 0x03, 0x09, 0x16, 0xF9, 0xFF, 0xF6, 0x02, 0xF1, 0xEF, 
	0xFB, 0xF2, 0xEB, 0xEF, 0xF4, 0x02, 0x10, 0xF9, 0x0B, 0x05, 0x06, 0xFE, 0xFC, 0xF7, 0xD8, 0x34, 
	0xDF, 0x43, 0xFA, 0xC9, 0xEE, 0xF9, 0x09, 0x01, 0x02, 0xE3, 0xFA, 0x04, 0x19, 0x03, 0xFB, 0x0C, 
	0x12, 0x0E, 0x03, 0x17, 0x0C, 0xFB, 0x05, 0x0A, 0xFF, 0xF8, 0x01, 0x00, 0x0D, 0x0B, 0x08, 0xF7, 
	0x04, 0x0D, 0x06, 0xF9, 0x0B, 0x11, 0xF6, 0x2F, 0x19, 0x24, 0x37, 0xFD, 0xF6, 0xCC, 0xC8, 0x8A, 
	0xA8, 0xD3, 0x72, 0x7F, 0x37, 0xCA, 0xAE, 0xD8, 0x1A, 0x12, 0xE8, 0x21, 0x04, 0x0E, 0xDD, 0xF8, 
	0x1E, 0xFC, 0x07, 0xF5, 0x0A, 0x0B, 0xDF, 0x18, 0x18, 0xFA, 0x02, 0xF9, 0xFF, 0xE0, 0x18, 0x2F, 
	0xFD, 0x1C, 0x1D, 0xE8, 0xEF, 0xC3, 0xB6, 0xD7, 0xFA, 0x1A, 0x4B, 0x35, 0x15, 0xEC, 0xEB, 0xF0, 
	0x0C, 0x0B, 0x07, 0x1D, 0xFC, 0xE5, 0xFF, 0x05, 0x1F, 0x0F, 0xFA, 0xF9, 0x15, 0x00, 0xFA, 0x05, 
	0x03, 0x01, 0xF8, 0xFA, 0x00, 0xF1, 0xFB, 0x1A, 0xF2, 0xF0, 0x09, 0xDE, 0xCB, 0xC6, 0xD7, 0x0E, 
	0x1C, 0x21, 0x00, 0xF6, 0xE6, 0xFF, 0x0C, 0x17, 0x03, 0x16, 0x0C, 0x02, 0xFE, 0x08, 0x0C, 0x05, 
	0x0C, 0x02, 0xF9, 0xFB, 0xF9, 0xFC, 0xF4, 0x05, 0x05, 0x09, 0x07, 0x05, 0x04, 0x05, 0xEA, 0x10, 
	0x00, 0xF7, 0x0E, 0x05, 0x02, 0x02, 0xF6, 0xFD, 0xFD, 0xFD, 0xFF, 0x02, 0xFB, 0x02, 0x03, 0x03, 
	0x01, 0xFD, 0x00, 0x0F, 0x13, 0xFC, 0xDE, 0xE3, 0xE3, 0x0C, 0x53, 0x30, 0xEB, 0xCD, 0xE2, 0x0D, 
	0x17, 0xDE, 0xED, 0x0F, 0x16, 0x02, 0x02, 0x00, 0xFC, 0xFA, 0x09, 0x0B, 0xFD, 0x09, 0x03, 0x0B, 
	0xFE, 0x04, 0x04, 0x03, 0xFE, 0xFF, 0x03, 0xFA, 0xFA, 0x00, 0x10, 0x18, 0x10, 0x03, 0xDD, 0xD4, 
	0xDB, 0x18, 0x7F, 0x40, 0xB9, 0x9D, 0xCD, 0x30, 0x36, 0xDC, 0xE9, 0x03, 0x0C, 0x05, 0x01, 0xF1, 
	0x00, 0x00, 0x0D, 0xFB, 0xFE, 0xFA, 0xF7, 0xFE, 0xFF, 0xFF, 0xFE, 0x01, 0x03, 0x00, 0x00, 0xFC, 
	0xFD, 0x04, 0x07, 0x01, 0xF7, 0xFB, 0x01, 0x05, 0x0A, 0x1D, 0x19, 0xD8, 0xD3, 0x05, 0x23, 0xFF, 
	0xEA, 0x01, 0x0C, 0xFB, 0xFA, 0xFF, 0x0C, 0xFB, 0xFF, 0x08, 0x03, 0x02, 0xF1, 0xF7, 0xD9, 0xE1, 
	0xE0, 0xE3, 0xE6, 0xDB, 0xE1, 0xE7, 0xE8, 0xEF, 0x03, 0x1D, 0x10, 0x0F, 0x02, 0x0D, 0x24, 0x2F, 
	0x21, 0x1B, 0x16, 0x0C, 0x00, 0xF7, 0x03, 0x08, 0xF8, 0x0D, 0x12, 0x0A, 0xFB, 0xF9, 0x00, 0x01, 
	0xF7, 0x06, 0xEB, 0xFD, 0xF1, 0xF8, 0xEF, 0xE2, 0xE1, 0xE0, 0xEE, 0xD5, 0xBF, 0xC2, 0xDA, 0x09, 
	0x0C, 0xFB, 0xF4, 0x06, 0x18, 0x14, 0x0A, 0x12, 0xFE, 0xF4, 0x0F, 0x05, 0xFC, 0xF1, 0x16, 0x13, 
	0xFA, 0xF9, 0xFB, 0xFE, 0x08, 0x09, 0x0F, 0x11, 0x0A, 0x07, 0xEF, 0xF5, 0x0F, 0x29, 0x4C, 0x59, 
	0x53, 0x51, 0x45, 0x75, 0x7F, 0x75, 0x4A, 0x11, 0xFB, 0xF1, 0xDF, 0xD0, 0xD7, 0xC6, 0xB4, 0xCB, 
	0xD1, 0xC5, 0xD1, 0xE2, 0xFC, 0xFB, 0x1C, 0xE4, 0xF4, 0xF4, 0xE1, 0xFC, 0x09, 0xF5, 0xF8, 0x02, 
	0xF1, 0x19, 0x0F, 0x1E, 0x1A, 0x1F, 0x06, 0xF8, 0xEF, 0xF0, 0xEE, 0xE7, 0xF1, 0xFE, 0x09, 0xFC, 
	0xFD, 0x09, 0xF7, 0xEB, 0xD7, 0x05, 0x7F, 0x48, 0x98, 0xA2, 0x35, 0x31, 0x0B, 0x1F, 0x0F, 0xDC, 
	0xD7, 0xC1, 0xED, 0x3F, 0xF9, 0xF0, 0xF8, 0x13, 0xFA, 0x1D, 0xF5, 0x0C, 0x07, 0x06, 0x15, 0x0A, 
	0xF7, 0xF6, 0xF5, 0xEE, 0xF7, 0xFC, 0xFF, 0xFB, 0xF8, 0x0B, 0xF8, 0xEB, 0xF2, 0x2C, 0x37, 0xF7, 
	0xDD, 0x23, 0x14, 0xEB, 0x00, 0x1C, 0xF2, 0xF0, 0xFC, 0xD6, 0x00, 0x27, 0xFF, 0x02, 0xFA, 0x08, 
	0xF3, 0x07, 0x0A, 0xFA, 0xEF, 0x03, 0xF7, 0x05, 0xFA, 0xFA, 0xFE, 0x02, 0x06, 0x05, 0x05, 0x00, 
	0x09, 0x08, 0xF6, 0xFC, 0x19, 0x05, 0xDA, 0xED, 0x28, 0x32, 0xDC, 0xD6, 0xF5, 0x07, 0xF6, 0x05, 
	0x0E, 0x06, 0x08, 0x01, 0x07, 0x13, 0xF4, 0xED, 0xF7, 0x00, 0xEF, 0xAD, 0x7F, 0x01, 0xFB, 0xFF, 
	0x00, 0x04, 0xFF, 0x02, 0xFF, 0x04, 0x00, 0x02, 0x01, 0x00, 0x01, 0x00, 0x00, 0xFF, 0x00, 0xFE, 
	0x01, 0xFF, 0x00, 0x00, 0xFF, 0x00, 0x01, 0xFF, 0x00, 0x01, 0xFF, 0xFF, 0xFE, 0xFE, 0x00, 0x00, 
	0x02, 0xFE, 0x06, 0x42, 0xC0, 0xED, 0x0E, 0x01, 0xFB, 0x03, 0xFE, 0x00, 0xFD, 0x00, 0xFE, 0x01, 
	0xFF, 0x00, 0x00, 0x00, 0x00, 0x00, 0x01, 0x00, 0x00, 0x00, 0x00, 0x01, 0x01, 0x00, 0xFF, 0x00, 
	0x01, 0x01, 0xFF, 0xFF, 0xFF, 0xFF, 0x00, 0x00, 0x05, 0x06, 0xFE, 0x07, 0xF2, 0xFE, 0xFC, 0x00, 
	0x00, 0x02, 0xFA, 0x01, 0xFF, 0x00, 0x00, 0x00, 0x00, 0xFF, 0x00, 0x00, 0xFE, 0x00, 0x01, 0x01, 
	0x00, 0x00, 0xFF, 0xFF, 0x00, 0xFF, 0xFF, 0x01, 0x00, 0xFF, 0x01, 0x01, 0x01, 0x02, 0x01, 0x00, 
	0xED, 0x1C, 0x1C, 0xF6, 0xFE, 0xFF, 0xE5, 0x07, 0xF3, 0x13, 0x03, 0x08, 0xFA, 0x06, 0x00, 0xF7, 
	0xF2, 0xF3, 0xF9, 0x00, 0xF4, 0xE9, 0xEB, 0xE4, 0xDA, 0xC6, 0xD4, 0xD7, 0xDF, 0xE9, 0xF9, 0xF4, 
	0xEE, 0x0E, 0x33, 0x21, 0x24, 0x32, 0x42, 0x73, 0xEB, 0xE1, 0xFA, 0xE3, 0xE2, 0xF5, 0xDE, 0xFD, 
	0xEE, 0xFE, 0xF3, 0xF0, 0xED, 0xEF, 0xF7, 0x01, 0x01, 0xF9, 0xF4, 0xF2, 0xFA, 0x0C, 0xEE, 0xD8, 
	0xCE, 0xEA, 0x0B, 0xE8, 0xE3, 0x12, 0x38, 0x12, 0x16, 0x22, 0x2D, 0x06, 0x29, 0x2B, 0x18, 0x7F, 
	0xF7, 0x06, 0xFC, 0xF1, 0xFB, 0x0B, 0xF5, 0x0A, 0x09, 0x04, 0x07, 0xFB, 0x0E, 0x0E, 0x1A, 0x04, 
	0x03, 0x03, 0xFF, 0xFD, 0x09, 0x02, 0x05, 0x08, 0x16, 0x12, 0xF9, 0xED, 0x0B, 0x17, 0xF9, 0xED, 
	0xFC, 0x02, 0x02, 0xF3, 0x0A, 0xF0, 0xE1, 0xEA, 0x05, 0xFB, 0x00, 0x03, 0x02, 0xFD, 0x03, 0x01, 
	0x08, 0x05, 0x01, 0xFD, 0xFD, 0xFD, 0xFD, 0x00, 0xFE, 0xFB, 0x06, 0x09, 0x00, 0xB3, 0xB6, 0x4A, 
	0x66, 0xD2, 0x81, 0x55, 0x41, 0xD0, 0xD8, 0x12, 0x20, 0xFD, 0xF1, 0x07, 0x20, 0xFF, 0xF7, 0x07, 
	0xFE, 0xFB, 0x02, 0x06, 0x01, 0x01, 0xFE, 0xFE, 0x02, 0x07, 0x05, 0x06, 0x03, 0x04, 0xFB, 0xFA, 
	0xFF, 0xF5, 0xFA, 0xFB, 0xE2, 0xCE, 0x31, 0x74, 0xF0, 0xA5, 0x10, 0x66, 0xCE, 0xCB, 0x25, 0x28, 
	0xE8, 0xF5, 0x08, 0xF6, 0x00, 0xFB, 0xF8, 0x0C, 0x02, 0xF4, 0xFD, 0x11, 0xFE, 0x02, 0xFD, 0xFC, 
	0xFD, 0xFE, 0xFB, 0xFA, 0x05, 0x09, 0x06, 0x04, 0x02, 0xFF, 0x04, 0x06, 0xFC, 0x13, 0x24, 0xE0, 
	0xC2, 0xFF, 0x3E, 0x06, 0xB6, 0x02, 0x30, 0xF1, 0xE8, 0x0D, 0x08, 0xF3, 0xFC, 0x01, 0x05, 0xFD, 
	0x08, 0x04, 0x05, 0x00, 0x09, 0x07, 0xFE, 0x03, 0xF6, 0xFE, 0x00, 0x01, 0x05, 0x00, 0x03, 0x04, 
	0x01, 0xFE, 0xFC, 0xFE, 0x03, 0x0B, 0x11, 0x0B, 0x01, 0xFB, 0xFB, 0x10, 0x2C, 0x1F, 0xF5, 0xE3, 
	0xCA, 0xDF, 0x04, 0x1A, 0x05, 0xF4, 0xF5, 0xED, 0x04, 0xF2, 0xF5, 0xF7, 0xF9, 0x01, 0xFE, 0xFC, 
	0xFA, 0xF8, 0x03, 0xFD, 0xFA, 0xF8, 0xFA, 0xFE, 0x00, 0xFA, 0xFC, 0xF7, 0xFD, 0x04, 0x07, 0xF7, 
	0xEC, 0xE4, 0xC5, 0xA3, 0xBC, 0x3F, 0x7F, 0x77, 0x27, 0xE7, 0xE1, 0xEF, 0xF0, 0xF9, 0x04, 0x10, 
	0x06, 0xF6, 0x07, 0xFC, 0x00, 0x06, 0xFE, 0x00, 0x06, 0xFE, 0xFE, 0x03, 0x09, 0x02, 0x01, 0x04, 
	0x03, 0xFF, 0xFF, 0xFA, 0xFA, 0xF7, 0xFB, 0x15, 0x04, 0xF3, 0xEE, 0xE2, 0xEB, 0x33, 0x37, 0x18, 
	0x09, 0xE9, 0xF1, 0x03, 0x09, 0xF9, 0x02, 0x11, 0x09, 0xFA, 0x07, 0x08, 0x04, 0x00, 0xF9, 0xFC, 
	0x02, 0xFA, 0x02, 0x04, 0x09, 0x06, 0x03, 0x05, 0x03, 0x01, 0x03, 0x01, 0xFD, 0xF3, 0xEE, 0xF1, 
	0xEE, 0xEA, 0xF5, 0xFC, 0xF6, 0x00, 0x1A, 0x10, 0x13, 0x19, 0x1F, 0x24, 0x2A, 0x44, 0x34, 0x7F, 
	0x07, 0xFE, 0x03, 0xF6, 0xFB, 0xF5, 0xF3, 0xF8, 0xFF, 0xF6, 0x02, 0x07, 0x05, 0x09, 0x01, 0x05, 
	0x06, 0xFF, 0xFA, 0xFD, 0x01, 0xFD, 0xF8, 0x03, 0x03, 0xF9, 0xFD, 0xFF, 0xFC, 0xFC, 0x07, 0xF8, 
	0x02, 0x0A, 0xF9, 0xF0, 0xFF, 0x00, 0x0C, 0x0E, 0x13, 0xFC, 0xFF, 0x03, 0xFD, 0x00, 0x05, 0x00, 
	0xFF, 0x01, 0x02, 0xFA, 0xF4, 0xEE, 0xF7, 0xF8, 0xFC, 0xFD, 0xFA, 0x04, 0x0B, 0x0E, 0x08, 0x10, 
	0x14, 0x07, 0x11, 0x16, 0x07, 0xF8, 0xEF, 0xE1, 0xF1, 0xEE, 0xDD, 0xD6, 0xD9, 0xBB, 0xCD, 0x89, 
	0xFA, 0x15, 0x10, 0xF4, 0xFD, 0xF5, 0x0A, 0x2B, 0x1E, 0x10, 0xEC, 0xEF, 0xE9, 0xE3, 0xCC, 0xD7, 
	0xF7, 0x02, 0xFD, 0xEE, 0xDC, 0xF2, 0x11, 0x0F, 0x05, 0xF0, 0xCC, 0xAD, 0xDC, 0x1C, 0x43, 0x0C, 
	0xEE, 0x09, 0x19, 0x1F, 0x0C, 0x0A, 0x00, 0xF4, 0xF6, 0xF5, 0xFF, 0xFB, 0xF9, 0xDE, 0xC6, 0xBA, 
	0xD0, 0x1D, 0x57, 0x7F, 0x75, 0x4A, 0x2B, 0x13, 0xFC, 0xEC, 0xE5, 0xF6, 0x03, 0x06, 0x15, 0xF7, 
	0xDA, 0xE9, 0xFF, 0x06, 0x0F, 0x1E, 0x1D, 0x05, 0xFB, 0xEA, 0xED, 0xFC, 0xED, 0xEA, 0xF1, 0xE3, 
	0xF9, 0x03, 0x16, 0xE5, 0x0A, 0x0F, 0x12, 0x1C, 0x0D, 0xFA, 0xDD, 0xE1, 0xE2, 0xED, 0xF3, 0xFB, 
	0x04, 0x0B, 0x0A, 0x00, 0xF9, 0xF7, 0x01, 0xFB, 0x0A, 0x27, 0x35, 0x25, 0xF6, 0xCD, 0xCD, 0xF2, 
	0x00, 0xF5, 0xFB, 0xFE, 0x0E, 0x18, 0x1E, 0x18, 0x08, 0xF4, 0xFD, 0xFB, 0xFE, 0x00, 0xFD, 0xF6, 
	0x05, 0x01, 0x0E, 0x05, 0xFC, 0xF8, 0x01, 0xFD, 0xF9, 0xFE, 0x05, 0x07, 0x0B, 0x08, 0x01, 0xF9, 
	0xF7, 0xFF, 0x06, 0xE3, 0x90, 0x8B, 0xCE, 0x58, 0x7F, 0x4A, 0x1E, 0xEE, 0xF1, 0xF2, 0xEB, 0x1E, 
	0x08, 0xFC, 0x08, 0xFF, 0x04, 0xFD, 0xFE, 0xFF, 0x0A, 0x09, 0x05, 0x07, 0x05, 0x00, 0xFF, 0xF9, 
	0xFE, 0x04, 0x04, 0x00, 0x04, 0xF9, 0xF9, 0xFC, 0x01, 0xF7, 0xF3, 0xDA, 0xAD, 0xD0, 0x13, 0x58, 
	0x33, 0x19, 0x05, 0xED, 0x03, 0xF8, 0xF1, 0x15, 0x0B, 0xF7, 0xFE, 0xFD, 0xFE, 0xFD, 0xFC, 0xFB, 
	0x05, 0x01, 0x09, 0x06, 0x01, 0xFB, 0xFA, 0xFE, 0xFF, 0x04, 0xFD, 0x00, 0xFE, 0xFE, 0xFC, 0x02, 
	0x04, 0x00, 0x08, 0x0A, 0x06, 0x1B, 0x17, 0xFC, 0xE5, 0xFF, 0xFE, 0xF6, 0xFA, 0x01, 0xF8, 0xFE, 
	0x11, 0xFF, 0xF5, 0x09, 0x0F, 0x0F, 0x04, 0xFC, 0x0D, 0x12, 0x24, 0x28, 0x2A, 0x2D, 0x34, 0x16, 
	0x05, 0xFD, 0xEC, 0xEB, 0xE4, 0xE2, 0xDA, 0xF1, 0xF3, 0xF8, 0xEF, 0xE9, 0xE3, 0xEE, 0xF5, 0x17, 
	0x13, 0xF5, 0xE9, 0xFD, 0xF6, 0xFB, 0x16, 0x03, 0x0A, 0xDD, 0xF2, 0x2E, 0x1F, 0x20, 0x00, 0xE1, 
	0xD0, 0xBF, 0xD4, 0xCB, 0xB5, 0x95, 0x93, 0xA0, 0xB0, 0xDA, 0x1B, 0x6B, 0x7F, 0x50, 0x4D, 0x2C, 
	0x1C, 0x37, 0x2E, 0x16, 0xF6, 0x0F, 0x05, 0x01, 0x12, 0xFC, 0x02, 0x04, 0x04, 0xF0, 0x12, 0x10, 
	0x04, 0xE7, 0x02, 0x17, 0x13, 0x16, 0xF7, 0xE6, 0xDE, 0xC7, 0xDE, 0xBF, 0xB2, 0xA8, 0x9C, 0xB8, 
	0xC4, 0x04, 0x24, 0x58, 0x57, 0x48, 0x27, 0xFF, 0x06, 0x38, 0x33, 0x09, 0x0A, 0x1C, 0xF8, 0xF7, 
	0x05, 0x0C, 0xF7, 0x0F, 0x03, 0xD8, 0x2B, 0xEE, 0x08, 0xEE, 0x02, 0x0D, 0x06, 0x00, 0xEC, 0xF5, 
	0xF3, 0x01, 0x02, 0x00, 0xEF, 0xE4, 0xD5, 0xE2, 0xFF, 0x2A, 0x61, 0x73, 0x7E, 0x7F, 0x77, 0x54, 
	0x12, 0xD1, 0xC3, 0xD2, 0xFE, 0xEF, 0xDA, 0xC2, 0xE4, 0x04, 0xEE, 0xF6, 0x04, 0xFC, 0x04, 0x36, 
	0x07, 0xFD, 0xFE, 0xFF, 0x05, 0x00, 0xF8, 0x00, 0x00, 0x05, 0x02, 0x06, 0x02, 0x0E, 0x18, 0x0F, 
	0x02, 0xFA, 0xFA, 0xF7, 0x02, 0x10, 0x07, 0x0D, 0x12, 0x2E, 0x1B, 0xEF, 0xE7, 0xF1, 0xF8, 0xFB, 
	0x04, 0x07, 0xEF, 0xF5, 0x04, 0x0C, 0x06, 0xFA, 0xF4, 0xF7, 0x09, 0x02, 0x0C, 0x03, 0xFC, 0x0E, 
	0x07, 0x06, 0xFD, 0xFF, 0x09, 0x11, 0x13, 0x01, 0xE3, 0xD3, 0xC6, 0x9E, 0x8F, 0x81, 0x8C, 0xB3, 
	0xD6, 0x11, 0x23, 0x10, 0x18, 0x2E, 0x2B, 0x29, 0x29, 0xFA, 0xFA, 0x21, 0x02, 0xF8, 0xEE, 0xE3, 
	0xFF, 0x00, 0xFD, 0xFF, 0xFE, 0x04, 0x06, 0x05, 0x01, 0xFF, 0xFE, 0xFD, 0xFE, 0xFE, 0xFE, 0x04, 
	0xFE, 0x02, 0xF7, 0xE8, 0x14, 0x31, 0xCE, 0xB8, 0x0D, 0x7F, 0xE6, 0x98, 0x24, 0x43, 0xEB, 0xE7, 
	0x17, 0x09, 0xF8, 0xFD, 0x01, 0x02, 0xF8, 0x03, 0xFD, 0x08, 0xFD, 0x04, 0xFB, 0xFB, 0x05, 0x03, 
	0x07, 0x06, 0xFE, 0xFE, 0xFE, 0xFF, 0xFC, 0xFB, 0xFD, 0x04, 0xFB, 0xF5, 0x17, 0x11, 0xCB, 0xEE, 
	0x51, 0x36, 0xB3, 0xC9, 0x54, 0x19, 0xCC, 0xFE, 0x1C, 0xF1, 0xED, 0x0A, 0x07, 0xFF, 0xFA, 0x02, 
	0xFB, 0x10, 0xFC, 0x02, 0x00, 0x00, 0x00, 0xFB, 0xFE, 0x00, 0x02, 0x00, 0x00, 0x03, 0x05, 0x01, 
	0x00, 0x02, 0x00, 0xFB, 0xFF, 0xF3, 0xFD, 0x1A, 0x15, 0xE3, 0xDC, 0x0C, 0x26, 0xE9, 0xEA, 0x08, 
	0x07, 0xF2, 0xFD, 0x08, 0x06, 0x06, 0xFB, 0xFE, 0xFC, 0xFF, 0xFA, 0x07, 0xFE, 0xFE, 0xFC, 0xF4, 
	0x13, 0x5B, 0x7F, 0x28, 0xC2, 0x9F, 0xBA, 0xFE, 0x20, 0x0B, 0xF9, 0xF9, 0x0D, 0xF8, 0xE5, 0xF1, 
	0xFD, 0x00, 0x0D, 0x0E, 0xFF, 0xF6, 0xF5, 0x0C, 0x07, 0xF9, 0xF6, 0x06, 0x09, 0x05, 0xFB, 0xFC, 
	0x05, 0xFE, 0xF6, 0x17, 0x01, 0x0B, 0x16, 0x01, 0xF9, 0x07, 0x2B, 0x1B, 0xE7, 0xD0, 0xD8, 0xF9, 
	0x04, 0x09, 0x08, 0xFC, 0x01, 0xF5, 0xFB, 0x00, 0x08, 0xF9, 0xFA, 0x0A, 0x0C, 0xFD, 0xEF, 0xF7, 
	0xF3, 0x01, 0xF7, 0x02, 0x05, 0x00, 0xFA, 0x0C, 0x01, 0x00, 0xFA, 0x04, 0xFC, 0xFA, 0x01, 0xFE, 
	0x04, 0xF1, 0x00, 0x0B, 0x09, 0x06, 0x05, 0x04, 0x00, 0xFD, 0xFC, 0xF3, 0xFA, 0xFE, 0x09, 0x08, 
	0xFF, 0xFE, 0xFA, 0xF9, 0x08, 0x0D, 0x05, 0xFB, 0x04, 0x06, 0xFF, 0xF7, 0xFC, 0x00, 0x04, 0x03, 
	0xD6, 0x16, 0x0F, 0x03, 0x09, 0x06, 0x19, 0x00, 0x02, 0x0A, 0x0F, 0x21, 0x27, 0x1E, 0x06, 0xFE, 
	0x1E, 0x0C, 0x18, 0xFD, 0xE6, 0xEB, 0xD5, 0xD1, 0xE8, 0xF7, 0xEB, 0xEA, 0x06, 0x04, 0xFC, 0x07, 
	0x06, 0xF1, 0xFD, 0xF7, 0xF4, 0x0B, 0x35, 0xA4, 0x6E, 0xBD, 0xFA, 0xC8, 0xBD, 0xBC, 0xCF, 0xE7, 
	0x28, 0x54, 0x3C, 0x41, 0x27, 0x34, 0x3A, 0x28, 0x2A, 0x1F, 0x16, 0x16, 0x26, 0x29, 0x31, 0x32, 
	0x15, 0x1A, 0x17, 0x0E, 0x00, 0x00, 0x07, 0xE5, 0xF9, 0x12, 0xEE, 0x08, 0xFB, 0xE8, 0xCD, 0x7F, 
	0x0A, 0xE5, 0xED, 0xF7, 0xE6, 0xF6, 0xF1, 0xF2, 0x02, 0x09, 0x10, 0x09, 0x1C, 0x0D, 0x0B, 0x0D, 
	0x01, 0x00, 0x07, 0xFF, 0xF8, 0x09, 0x00, 0xEC, 0xD8, 0xF6, 0xEA, 0xF4, 0x06, 0x08, 0xF5, 0x04, 
	0x05, 0xF7, 0xF3, 0x0A, 0xF4, 0xFC, 0xF9, 0xFA, 0x00, 0x0C, 0xFA, 0x04, 0x12, 0xC4, 0x07, 0x04, 
	0x09, 0xFF, 0xF9, 0x05, 0xFE, 0x04, 0xFB, 0x01, 0x01, 0xFF, 0x00, 0xFF, 0xFF, 0x02, 0xFF, 0xFF, 
	0xFF, 0x00, 0xFF, 0x00, 0xFF, 0x01, 0x00, 0xFF, 0x01, 0x01, 0x01, 0xFF, 0x00, 0x00, 0x02, 0x00, 
	0xFF, 0xE7, 0x22, 0xD5, 0xF7, 0x7F, 0xE5, 0x08, 0xE7, 0x08, 0x03, 0x04, 0xF8, 0x03, 0x04, 0xFF, 
	0x03, 0xFF, 0x00, 0x01, 0xFE, 0x00, 0x01, 0x01, 0xFE, 0x00, 0x01, 0x01, 0x00, 0x04, 0x00, 0xFD, 
	0x00, 0x00, 0xFF, 0xFF, 0x01, 0x00, 0xFE, 0x00, 0xFF, 0xFD, 0x0D, 0xEB, 0x0B, 0xFC, 0xF4, 0x04, 
	0xFB, 0x06, 0xFD, 0x02, 0xFC, 0x01, 0xFE, 0xFF, 0x00, 0xFE, 0xFF, 0x01, 0xFE, 0x00, 0x00, 0x01, 
	0xFF, 0x02, 0x00, 0xFF, 0x01, 0xFD, 0x00, 0x01, 0x00, 0x01, 0x00, 0xFF, 0x00, 0x01, 0xFF, 0x01, 
	0xFB, 0x10, 0x1C, 0xEE, 0xF8, 0xED, 0xF1, 0x08, 0x12, 0xFE, 0x07, 0x09, 0x1E, 0x30, 0x43, 0x28, 
	0x20, 0x3F, 0x49, 0x3B, 0x11, 0xD0, 0x8C, 0x81, 0x98, 0xB5, 0xBC, 0xE7, 0x20, 0x0B, 0x1A, 0xF9, 
	0x07, 0x04, 0xED, 0xEC, 0xEA, 0x12, 0x29, 0x14, 0xEF, 0x03, 0x0E, 0xEA, 0x01, 0xF0, 0x06, 0x0D, 
	0x1D, 0x0E, 0xF4, 0x00, 0x15, 0x21, 0x12, 0x0D, 0x24, 0x2E, 0x24, 0x20, 0x0C, 0x01, 0xC6, 0xAB, 
	0xB2, 0xBB, 0xCF, 0xF4, 0x25, 0x22, 0x1E, 0xF7, 0xE1, 0x03, 0x12, 0x13, 0x07, 0x1E, 0x1B, 0xEE, 
	0xE2, 0x0B, 0xFB, 0xF8, 0xF6, 0xFF, 0x11, 0x09, 0x0A, 0xFC, 0xF6, 0xEE, 0xFD, 0x05, 0x06, 0xFE, 
	0x03, 0x00, 0x01, 0xF7, 0xF7, 0x00, 0x00, 0x0A, 0x01, 0x0B, 0x18, 0x12, 0x03, 0xFC, 0x06, 0x0B, 
	0xFB, 0xFE, 0x0A, 0x03, 0x02, 0x12, 0xF6, 0xE6, 0x04, 0x0C, 0x02, 0x0F, 0x07, 0x03, 0x05, 0x0E, 
	0x06, 0x08, 0x05, 0x16, 0x1D, 0x1F, 0x1A, 0x02, 0xF1, 0xDF, 0xD3, 0xBB, 0xB5, 0xC7, 0xD2, 0xDF, 
	0xE9, 0x05, 0x23, 0x11, 0x06, 0x17, 0x1C, 0x11, 0xFC, 0x07, 0x07, 0x03, 0xF9, 0xF4, 0x00, 0xEE, 
	0xF9, 0x05, 0x03, 0x0E, 0x09, 0x07, 0xFA, 0xFD, 0xF6, 0xF5, 0xF9, 0xFC, 0xF5, 0xED, 0xF0, 0xF7, 
	0xFE, 0xF6, 0xE4, 0xDC, 0xDD, 0xF4, 0xF6, 0xF9, 0x10, 0x1B, 0x09, 0x07, 0x06, 0x00, 0x05, 0x0E, 
	0x05, 0x01, 0xF6, 0x0A, 0x0B, 0x0C, 0x09, 0x05, 0xEF, 0xE9, 0xF4, 0x00, 0x03, 0x02, 0x00, 0x04, 
	0xFA, 0xF3, 0xF3, 0xF8, 0xF0, 0xED, 0xED, 0xFA, 0x0E, 0x2E, 0x55, 0x73, 0x7F, 0x70, 0x3F, 0x24, 
	0x00, 0xD2, 0xD9, 0xEA, 0xF1, 0xE6, 0xE0, 0xD8, 0xF6, 0x05, 0xF0, 0xFE, 0xFF, 0xF0, 0xFC, 0x19, 
	0xFF, 0xF8, 0x00, 0xF8, 0x16, 0x04, 0x06, 0xFF, 0xF0, 0xE3, 0xED, 0xE6, 0xDD, 0xD5, 0xE3, 0x06, 
	0x1A, 0x10, 0xFB, 0xFA, 0xFC, 0x04, 0xFD, 0xEC, 0xEC, 0x22, 0x45, 0x1C, 0x00, 0x17, 0x2D, 0x03, 
	0xE2, 0xF7, 0xF8, 0xD9, 0xDF, 0xE7, 0xFB, 0x10, 0xFB, 0xE7, 0xEC, 0xE5, 0xFB, 0xEF, 0x06, 0x16, 
	0x11, 0x1A, 0x16, 0x28, 0x37, 0x3C, 0x29, 0x00, 0xEB, 0xF4, 0xFD, 0xFD, 0xF3, 0xDD, 0xCE, 0xE3, 
	0x06, 0x2F, 0x35, 0xCB, 0x81, 0xC7, 0x2E, 0x0A, 0xD0, 0xFA, 0x2C, 0x18, 0x0C, 0x24, 0x23, 0x17, 
	0xFA, 0x0D, 0x15, 0xF9, 0x0D, 0x05, 0x02, 0xF9, 0x05, 0xFF, 0x00, 0xFB, 0x00, 0xFD, 0xFA, 0xF5, 
	0xF6, 0xF6, 0xF3, 0x04, 0x0E, 0x0F, 0x15, 0x19, 0xFF, 0xD8, 0xEB, 0x02, 0x0F, 0x1D, 0x25, 0x13, 
	0x0D, 0x01, 0xFE, 0x02, 0xFD, 0xEB, 0xF8, 0xDD, 0x3A, 0xDB, 0x0B, 0x12, 0x13, 0x22, 0x1C, 0x10, 
	0x09, 0x15, 0x0E, 0x14, 0x08, 0xFF, 0x09, 0x0D, 0x08, 0x06, 0x0F, 0x0B, 0x0E, 0x0B, 0x1A, 0x26, 
	0x22, 0x24, 0x06, 0xF2, 0xDC, 0xE9, 0xE1, 0xC8, 0xC9, 0xEB, 0xE1, 0xD3, 0xC0, 0xDD, 0x81, 0xC1, 
	0x2A, 0xDD, 0x15, 0x10, 0x1B, 0x18, 0x0E, 0x0E, 0x06, 0x02, 0x01, 0xF9, 0xFB, 0xFD, 0xF4, 0xF8, 
	0xFC, 0x08, 0x09, 0x05, 0x01, 0xFF, 0x14, 0x02, 0xFE, 0x08, 0x07, 0x09, 0xE8, 0xE6, 0xFE, 0x07, 
	0xFF, 0x0A, 0xF8, 0xDB, 0xE0, 0xFA, 0xC1, 0xDD, 0x1E, 0xD6, 0x0A, 0xE9, 0xF3, 0xF9, 0xF8, 0xF4, 
	0xFF, 0x01, 0x00, 0x0B, 0x08, 0x03, 0x00, 0xFB, 0x04, 0xFC, 0xF8, 0xFE, 0xFD, 0xFD, 0xFB, 0xFD, 
	0xF2, 0xEF, 0xFC, 0x09, 0x15, 0x0F, 0x04, 0x09, 0xF8, 0x08, 0x11, 0x08, 0x01, 0x1E, 0x02, 0x45, 
	0x01, 0x09, 0xFD, 0x03, 0xFE, 0xFE, 0x00, 0x02, 0xFE, 0xFB, 0x05, 0x11, 0x0B, 0xFA, 0xE4, 0xD4, 
	0xC6, 0xD8, 0xEF, 0x0E, 0x1A, 0x1C, 0x06, 0xFF, 0xFF, 0x00, 0x03, 0x0E, 0x0C, 0xF5, 0xFC, 0x0C, 
	0x0D, 0xF9, 0x03, 0x02, 0x05, 0x05, 0x08, 0xF1, 0x01, 0x02, 0x02, 0x02, 0xFF, 0xFE, 0xF8, 0xFE, 
	0x02, 0x06, 0x03, 0x09, 0x18, 0x1B, 0x01, 0xCE, 0xBA, 0xDE, 0x0A, 0x25, 0x15, 0xFE, 0x01, 0x0F, 
	0x0C, 0x00, 0xFE, 0x03, 0x0E, 0xFC, 0xF9, 0xFD, 0xF3, 0xFE, 0x04, 0x00, 0xFD, 0x07, 0x0F, 0x0E, 
	0xF4, 0xFF, 0x08, 0xFB, 0x02, 0x0A, 0x08, 0x0B, 0x01, 0xFE, 0xF4, 0xE3, 0xDE, 0xF3, 0x21, 0x63, 
	0x7F, 0x4D, 0x11, 0xDE, 0xD2, 0xDD, 0xED, 0xF6, 0xF5, 0x03, 0xFA, 0xE4, 0xF1, 0x0B, 0xFF, 0xF6, 
	0xFC, 0x04, 0xFF, 0xFA, 0xFA, 0xF8, 0xFC, 0xF1, 0xFB, 0xFD, 0x0A, 0xF6, 0xFE, 0xFE, 0x01, 0x39, 
	0xBA, 0x12, 0x09, 0xE8, 0x13, 0xF8, 0xFD, 0x0A, 0xF6, 0x08, 0xFB, 0x02, 0xFE, 0x00, 0x01, 0xFF, 
	0x01, 0xFE, 0xFF, 0xFF, 0x01, 0x00, 0x01, 0x01, 0xFE, 0x02, 0x00, 0x01, 0x02, 0xFF, 0x01, 0x01, 
	0x02, 0x01, 0xFC, 0x05, 0x01, 0xF2, 0xC5, 0x7F, 0xC5, 0xE6, 0x35, 0xDB, 0x12, 0x02, 0xF4, 0x0C, 
	0xFA, 0x04, 0xFD, 0x02, 0xFD, 0x01, 0x00, 0x00, 0x01, 0x02, 0x01, 0x00, 0xFF, 0x00, 0xFE, 0xFF, 
	0x00, 0x02, 0xFF, 0xFD, 0xFF, 0xFD, 0x00, 0x01, 0x07, 0xFA, 0xFE, 0x08, 0xF5, 0x11, 0xAB, 0x58, 
	0xF6, 0xE8, 0x10, 0xFB, 0xFE, 0x06, 0xFA, 0x02, 0x02, 0xFC, 0x04, 0xFF, 0x01, 0x01, 0x01, 0xFF, 
	0xFF, 0xFF, 0x02, 0x00, 0xFF, 0xFF, 0x00, 0x02, 0x01, 0x00, 0x01, 0x00, 0x00, 0x00, 0x03, 0x00, 
	0xFE, 0x01, 0x02, 0x01, 0x03, 0x04, 0x0D, 0xF1, 0xEA, 0xF1, 0x03, 0x0A, 0x06, 0xFD, 0xFC, 0x01, 
	0x03, 0x00, 0x02, 0x02, 0xFD, 0x00, 0x03, 0x00, 0xFC, 0xFF, 0x05, 0xFA, 0x01, 0x02, 0x05, 0xFF, 
	0x00, 0x02, 0x01, 0x00, 0x01, 0xFD, 0x05, 0x00, 0x00, 0x04, 0x03, 0x02, 0xFA, 0xFF, 0x08, 0x04, 
	0xF6, 0xE8, 0xF8, 0xFF, 0x04, 0x03, 0xFD, 0x01, 0xFD, 0xFF, 0xFE, 0x00, 0x02, 0x02, 0xFF, 0xF9, 
	0xFA, 0xFE, 0x00, 0x00, 0xFF, 0xFD, 0x03, 0x04, 0x02, 0x00, 0x01, 0x05, 0x04, 0xFB, 0x09, 0xF7, 
	0xFC, 0x0A, 0x0E, 0xF7, 0xEB, 0xCF, 0xE2, 0x2A, 0x7F, 0x4B, 0xF7, 0xE0, 0xEC, 0x04, 0xFF, 0xFE, 
	0xF8, 0x03, 0xFF, 0x05, 0x03, 0xFD, 0xFE, 0x04, 0x0B, 0x00, 0xF8, 0xFF, 0x04, 0x00, 0xF7, 0xF6, 
	0x05, 0xFC, 0xF6, 0x05, 0xFF, 0xF6, 0x0D, 0xF3, 0xD0, 0x62, 0xC6, 0x11, 0xFD, 0xF1, 0x0E, 0xFA, 
	0x09, 0xFF, 0xFE, 0x01, 0xFE, 0xFF, 0x00, 0x01, 0x01, 0xFF, 0x01, 0xFF, 0xFF, 0x00, 0x00, 0x01, 
	0x01, 0x03, 0xFE, 0xFC, 0xFF, 0x03, 0xFF, 0x00, 0x00, 0x00, 0xFD, 0x01, 0x01, 0x04, 0xFD, 0xFD, 
	0xCB, 0x7F, 0xAE, 0x21, 0xEC, 0xFD, 0x1C, 0xF3, 0x05, 0xFC, 0x03, 0xFF, 0xFF, 0x02, 0x00, 0xFF, 
	0xFF, 0x02, 0x00, 0xFF, 0xFE, 0x00, 0x01, 0x02, 0xFF, 0x01, 0xFF, 0xFD, 0x02, 0x00, 0x00, 0xFF, 
	0xFF, 0xFE, 0xFE, 0x03, 0xFE, 0x04, 0xFE, 0x03, 0xE8, 0x20, 0xE8, 0x0F, 0xF0, 0xFD, 0x02, 0x03, 
	0x00, 0xFE, 0x01, 0x00, 0xFF, 0x01, 0x00, 0x00, 0x01, 0x01, 0xFF, 0xFF, 0xFF, 0x00, 0x00, 0xFF, 
	0x00, 0x02, 0xFF, 0xFC, 0x03, 0x00, 0x00, 0x00, 0x00, 0xFF, 0xFE, 0x00, 0xFF, 0x03, 0xFC, 0xFF, 
	0x10, 0x0D, 0x0F, 0xFB, 0xF5, 0x0A, 0x06, 0x18, 0x1B, 0x11, 0x06, 0x0D, 0x06, 0xFE, 0xE7, 0x07, 
	0x01, 0xF6, 0xFE, 0x03, 0xF6, 0xDB, 0xBA, 0xC5, 0xFD, 0x07, 0x1E, 0x22, 0x00, 0xCC, 0xC4, 0xD8, 
	0xF1, 0xEE, 0xE5, 0x14, 0x09, 0x0E, 0xFA, 0x02, 0x18, 0x0E, 0x10, 0x0A, 0x0F, 0x04, 0xD8, 0xF1, 
	0xFA, 0xF6, 0xFC, 0x06, 0x22, 0x15, 0x06, 0x05, 0x12, 0x2A, 0x32, 0x3F, 0x3E, 0x45, 0x4A, 0x51, 
	0x7E, 0x55, 0x29, 0x45, 0x42, 0x50, 0x66, 0x4B, 0x13, 0xFC, 0x0E, 0x3F, 0x1F, 0x0F, 0xEC, 0x81, 
	0x1A, 0xA3, 0xD7, 0x0F, 0xF5, 0x13, 0x08, 0x0A, 0xFB, 0x0D, 0xFB, 0xF2, 0xF9, 0xEB, 0xDF, 0xEB, 
	0xEA, 0xC9, 0xBA, 0xCA, 0xD2, 0xE4, 0xCA, 0xBC, 0xC0, 0xA6, 0x9F, 0xBB, 0xB5, 0xD6, 0xE8, 0xE2, 
	0xD9, 0xEF, 0x0F, 0x05, 0xED, 0xFB, 0x11, 0x56, 0xF1, 0x03, 0x0A, 0x00, 0xF8, 0xD6, 0xC3, 0xC3, 
	0xF5, 0x45, 0x7F, 0x6E, 0x45, 0x3D, 0x24, 0xE2, 0xBF, 0xE9, 0x10, 0x1D, 0x17, 0x04, 0x09, 0xF4, 
	0xEF, 0xF8, 0xFD, 0xFA, 0x06, 0xFD, 0xFF, 0xFA, 0xF1, 0x02, 0x0C, 0xFC, 0xF2, 0xEC, 0xFF, 0x05, 
	0x01, 0x02, 0x09, 0xFA, 0xF4, 0xEB, 0xED, 0xF8, 0x0B, 0x0D, 0x0E, 0x03, 0x11, 0x1B, 0x16, 0xFD, 
	0xFB, 0x03, 0x02, 0xFF, 0xFD, 0x06, 0x07, 0x05, 0xF3, 0xFF, 0x04, 0xF2, 0xF8, 0xFE, 0x0D, 0x05, 
	0xF8, 0xF5, 0xF8, 0xEE, 0xFB, 0x08, 0xF8, 0x08, 0x0C, 0xFC, 0x07, 0xEF, 0xF6, 0xFA, 0xF3, 0xF9, 
	0xF8, 0xED, 0xEB, 0xEB, 0xF0, 0xF2, 0xF6, 0xF2, 0xF6, 0xF6, 0xF8, 0xFC, 0xFF, 0xFF, 0x02, 0x06, 
	0x07, 0xFF, 0x02, 0xF5, 0xF1, 0xF5, 0x07, 0x01, 0xF9, 0x02, 0x00, 0xFE, 0x07, 0x0D, 0x04, 0xF4, 
	0x68, 0x7B, 0x04, 0x8C, 0x91, 0xDD, 0xF3, 0x16, 0x0C, 0xE5, 0xCF, 0xC2, 0xE3, 0xD1, 0xE8, 0x04, 
	0x13, 0x0B, 0x19, 0x0B, 0xFD, 0xFD, 0xFA, 0x00, 0xE6, 0xC2, 0xCE, 0xD7, 0xEA, 0xEB, 0xDF, 0x29, 
	0xF6, 0xF4, 0xEC, 0xBD, 0xAF, 0xCA, 0xB9, 0xF6, 0x3E, 0x1E, 0xF1, 0x8F, 0x81, 0xBA, 0xCC, 0xF5, 
	0xF5, 0xBB, 0xE2, 0xC6, 0x02, 0xDC, 0x11, 0x11, 0x1F, 0x18, 0x09, 0xFC, 0x0E, 0xFA, 0xE9, 0x02, 
	0x24, 0x25, 0x26, 0x1F, 0x1B, 0x0C, 0xD5, 0x15, 0x05, 0x06, 0x16, 0x3F, 0x33, 0x21, 0x0C, 0xC2, 
	0x3C, 0xAD, 0x1B, 0x93, 0x85, 0xF9, 0xE2, 0xE6, 0xE6, 0xDE, 0xEF, 0x0D, 0x34, 0x2E, 0x32, 0x22, 
	0x17, 0x09, 0xCD, 0xE9, 0x0E, 0x45, 0x5C, 0x38, 0x39, 0x06, 0x18, 0x21, 0x16, 0x21, 0xDD, 0x19, 
	0x17, 0x1E, 0x1C, 0x26, 0x48, 0x1F, 0x1E, 0x12, 0x81, 0xA4, 0xE4, 0xE9, 0xC8, 0xF5, 0xE7, 0xF6, 
	0xFB, 0xFB, 0xF3, 0xE8, 0xF9, 0xF7, 0xFE, 0x1A, 0x15, 0x0C, 0x05, 0xFF, 0x08, 0xF4, 0xF6, 0xFD, 
	0x15, 0xFF, 0xFF, 0xFD, 0xFB, 0x08, 0x0B, 0xF8, 0xF9, 0x14, 0x12, 0x00, 0x15, 0xFB, 0x01, 0x0F, 
	0xC6, 0xC8, 0x03, 0xFE, 0xD2, 0x07, 0xF8, 0x15, 0x19, 0x02, 0xFE, 0xFF, 0x00, 0xF9, 0x01, 0xFF, 
	0x12, 0x0F, 0x0E, 0x08, 0x04, 0x05, 0x0B, 0x13, 0x1A, 0x19, 0x10, 0x1B, 0x1C, 0x29, 0xFE, 0x11, 
	0x0F, 0x03, 0x04, 0xFF, 0x0B, 0x04, 0xFB, 0xE3, 0x1B, 0xDF, 0xFA, 0xEB, 0x1B, 0x42, 0x33, 0x42, 
	0x25, 0x1A, 0x16, 0x05, 0x0B, 0x00, 0xF9, 0xFC, 0x05, 0x10, 0xF7, 0xF8, 0xF0, 0xFE, 0x01, 0x0A, 
	0x18, 0x0E, 0x01, 0xF5, 0x09, 0x1D, 0xED, 0xFF, 0x08, 0xE2, 0xE9, 0x04, 0xF3, 0xF0, 0x10, 0xC0, 
	0xF1, 0xFF, 0xED, 0x05, 0xF9, 0x15, 0x30, 0x3C, 0x1B, 0xC7, 0x9F, 0x90, 0xCE, 0x1E, 0x55, 0x2F, 
	0xFC, 0xDE, 0xF1, 0xF2, 0x0F, 0x06, 0xEA, 0xF1, 0xFE, 0x15, 0x32, 0x4D, 0x06, 0xB6, 0xB3, 0x11, 
	0x2C, 0x07, 0x00, 0xF8, 0x0C, 0x0B, 0x0D, 0xF2, 0x06, 0x03, 0x0B, 0x0E, 0x02, 0xEE, 0xDC, 0xBB, 
	0xD3, 0x08, 0x68, 0x7F, 0x48, 0xF9, 0xD1, 0xEB, 0x1D, 0x3F, 0x32, 0x1D, 0x1A, 0x11, 0x15, 0x1B, 
	0x0D, 0xDF, 0xCC, 0xF8, 0x1F, 0xEF, 0xB7, 0xC7, 0xF0, 0xF6, 0xE0, 0xE5, 0xED, 0xF8, 0x00, 0x2E, 
	0x08, 0x06, 0x01, 0xF4, 0xF6, 0xF6, 0x07, 0x17, 0x14, 0xFF, 0x00, 0x05, 0x04, 0xF6, 0xE5, 0xDA, 
	0xDC, 0xE1, 0xEC, 0xF2, 0xF7, 0xF4, 0xED, 0x06, 0x08, 0xF6, 0xD2, 0xD7, 0x17, 0x47, 0x49, 0x23, 
	0x10, 0x0D, 0xFE, 0x01, 0x09, 0x00, 0xF3, 0xEB, 0x00, 0x08, 0x00, 0xFD, 0x0B, 0xED, 0xE1, 0xE8, 
	0xBB, 0xAC, 0xB6, 0xBB, 0xFE, 0x56, 0x7F, 0x45, 0x0C, 0x08, 0x0D, 0x1D, 0x25, 0x09, 0x00, 0x02, 
	0x08, 0xF0, 0xFA, 0xFC, 0xF3, 0x05, 0x17, 0x04, 0xE0, 0xD6, 0x08, 0x33, 0xFF, 0xDF, 0xEB, 0xFF, 
	0xFA, 0x01, 0x0B, 0xEA, 0xEB, 0xEF, 0xDC, 0xE2, 0xD1, 0xD3, 0xE2, 0xE4, 0x0B, 0x28, 0x45, 0x35, 
	0x25, 0x1C, 0x13, 0x09, 0x18, 0x12, 0x08, 0xFE, 0x08, 0xF0, 0xF7, 0xF8, 0xF7, 0x08, 0x07, 0xFE, 
	0xF7, 0xE2, 0x02, 0x21, 0x21, 0xFA, 0xFD, 0x0E, 0x04, 0x00, 0xF8, 0x11, 0x0D, 0xF9, 0xFD, 0xFF, 
	0xFF, 0x06, 0x0A, 0x0D, 0xFE, 0xFB, 0xF9, 0xFC, 0xF6, 0xF0, 0xF5, 0x01, 0x04, 0xFD, 0xFF, 0xF1, 
	0xFB, 0xF8, 0x06, 0x05, 0xF8, 0xF2, 0xEC, 0xFC, 0x12, 0x0D, 0xFE, 0xF5, 0xFB, 0xFA, 0x05, 0xFB, 
	0x13, 0xFF, 0xCF, 0xF8, 0x18, 0x00, 0x07, 0x06, 0x12, 0x2D, 0x48, 0x2D, 0xE9, 0xC0, 0xC5, 0xD7, 
	0xDD, 0xE2, 0xF4, 0xF5, 0xE3, 0xFB, 0x1D, 0x18, 0xEE, 0xD5, 0xDE, 0x1F, 0x1B, 0xF7, 0xDD, 0xFC, 
	0x47, 0x32, 0x15, 0xE7, 0xE8, 0x15, 0x04, 0xF5, 0x05, 0xED, 0xFF, 0x11, 0xFB, 0xF9, 0xFA, 0xEE, 
	0xBE, 0x96, 0xA3, 0xEA, 0x69, 0x7F, 0x5E, 0x15, 0xD4, 0xF2, 0x37, 0x44, 0x5C, 0x25, 0xF2, 0xD9, 
	0xEF, 0x13, 0x21, 0x1E, 0xDC, 0xCA, 0x1F, 0x41, 0xED, 0xAB, 0xF9, 0x33, 0xF2, 0xF0, 0xFA, 0x12, 
	0xF5, 0xF0, 0xFA, 0x13, 0xF2, 0xF3, 0x00, 0xEC, 0xDB, 0xBB, 0xC6, 0xE0, 0x2D, 0x3E, 0x57, 0x1F, 
	0x14, 0x08, 0x22, 0x1B, 0x34, 0x17, 0xF1, 0xE0, 0xF2, 0xFE, 0x08, 0x09, 0xE6, 0xE1, 0x02, 0x05, 
	0xED, 0xC1, 0xE0, 0x1F, 0x01, 0xF9, 0xF1, 0x29, 0x04, 0x00, 0x06, 0xFA, 0xFF, 0xFD, 0xF9, 0xF1, 
	0xF4, 0xFB, 0x05, 0x07, 0xF9, 0xF1, 0xEF, 0xFF, 0x1E, 0x2B, 0x0C, 0xD7, 0xA7, 0xB9, 0xF1, 0x12, 
	0x14, 0x29, 0x25, 0x04, 0xE9, 0xEF, 0x06, 0xFF, 0xF1, 0x06, 0x0A, 0x05, 0x02, 0xFC, 0x03, 0x10, 
	0xFA, 0xF6, 0xFA, 0x02, 0xFA, 0xFB, 0x09, 0x13, 0x11, 0x05, 0xF6, 0xEA, 0xF5, 0x0C, 0x0E, 0xF2, 
	0xD2, 0xDB, 0x0B, 0x45, 0x7F, 0x79, 0x2A, 0xEB, 0xD3, 0xD2, 0xE7, 0xFB, 0x0B, 0x08, 0xFE, 0x06, 
	0x09, 0x03, 0xFA, 0xF5, 0xFE, 0xFD, 0xFF, 0xFB, 0xF7, 0x0C, 0x0B, 0x04, 0x07, 0xFF, 0xF9, 0xF8, 
	0xFA, 0xFC, 0x00, 0xFF, 0x03, 0x06, 0x07, 0x00, 0xFE, 0x01, 0xFC, 0xF2, 0xF2, 0xFE, 0x09, 0x02, 
	0xFC, 0xFD, 0x03, 0x04, 0x03, 0x00, 0xF9, 0xF8, 0xFE, 0x04, 0x03, 0xF9, 0xFC, 0x01, 0x01, 0xF6, 
	0xFF, 0xFD, 0xC2, 0x7F, 0xF6, 0xFB, 0x06, 0x03, 0xFE, 0x02, 0x06, 0xFC, 0x03, 0x00, 0x00, 0x02, 
	0xFF, 0x03, 0xFF, 0x00, 0xFE, 0x00, 0x00, 0x01, 0x01, 0x02, 0x00, 0xFD, 0x00, 0x01, 0x01, 0xFE, 
	0x01, 0xFE, 0xFE, 0x01, 0x00, 0x01, 0xFE, 0xFF, 0xFB, 0x06, 0x11, 0xE9, 0xF2, 0x05, 0xFA, 0x01, 
	0x02, 0xFC, 0x01, 0xFB, 0x02, 0xFF, 0x00, 0x00, 0xFF, 0x02, 0xFF, 0x00, 0xFF, 0x01, 0x00, 0x00, 
	0xFF, 0x01, 0x00, 0xFF, 0xFF, 0x02, 0x00, 0x00, 0xFF, 0x00, 0x00, 0x02, 0xFF, 0x01, 0x00, 0x00, 
	0xFC, 0x06, 0x08, 0xF1, 0x00, 0xF9, 0x00, 0x05, 0xFE, 0xFF, 0xFF, 0xFE, 0xFF, 0xFF, 0xFE, 0x01, 
	0xFF, 0x01, 0x01, 0xFF, 0xFD, 0x00, 0x01, 0x03, 0x00, 0x00, 0x00, 0xFE, 0x01, 0x02, 0x00, 0x00, 
	0xFF, 0xFE, 0xFE, 0x01, 0x01, 0x02, 0xFF, 0xFF, 0xF8, 0x10, 0xFD, 0xC0, 0x7F, 0xC1, 0x10, 0xFA, 
	0x14, 0xF4, 0x02, 0x07, 0x00, 0xFF, 0x03, 0x00, 0x00, 0x01, 0x00, 0x01, 0xFE, 0x00, 0xFF, 0x01, 
	0x02, 0x02, 0x01, 0xFE, 0x00, 0x03, 0xFF, 0xFF, 0x00, 0xFD, 0xFE, 0x00, 0xFF, 0x00, 0xFE, 0x01, 
	0x02, 0xF8, 0xFE, 0xDF, 0x34, 0xE2, 0x03, 0xFD, 0x09, 0xF8, 0x01, 0x03, 0xFC, 0x01, 0xFF, 0xFF, 
	0xFF, 0x00, 0xFF, 0xFF, 0x00, 0x01, 0x01, 0x00, 0x00, 0xFF, 0x00, 0xFF, 0x02, 0x01, 0xFF, 0x00, 
	0x00, 0xFF, 0xFF, 0x00, 0x00, 0x01, 0x00, 0x00, 0x01, 0x02, 0x09, 0xF4, 0x05, 0xFC, 0xFD, 0x01, 
	0x00, 0xFF, 0xFF, 0xFF, 0xFE, 0xFE, 0x00, 0x00, 0x00, 0x00, 0x01, 0xFF, 0xFF, 0x00, 0x01, 0x00, 
	0x00, 0xFF, 0x00, 0xFF, 0x00, 0x00, 0x00, 0x01, 0xFF, 0x00, 0x00, 0x03, 0x00, 0x01, 0x00, 0xFE, 
	0xA1, 0xF2, 0xE5, 0x1F, 0x3E, 0x10, 0x0D, 0xFB, 0x1D, 0x1A, 0x30, 0x29, 0xF9, 0x06, 0x24, 0x42, 
	0x24, 0x01, 0xE4, 0xEA, 0x15, 0x34, 0x3C, 0x37, 0x14, 0x4F, 0x3B, 0x1B, 0x37, 0x62, 0x7E, 0x19, 
	0xEE, 0xEF, 0x06, 0x24, 0x20, 0x1B, 0x4D, 0xC9, 0x81, 0x1A, 0xE2, 0x20, 0x23, 0xF7, 0xE9, 0x0A, 
	0x08, 0x11, 0x25, 0x18, 0x06, 0x16, 0x02, 0x06, 0x05, 0x14, 0x06, 0x00, 0xE8, 0xF0, 0x0F, 0x19, 
	0xF7, 0x11, 0x13, 0x00, 0xFD, 0xE9, 0x08, 0x10, 0x3B, 0x0E, 0x12, 0x08, 0x29, 0x4C, 0x3D, 0xD1, 
	0x87, 0x23, 0xEE, 0x01, 0x16, 0x03, 0xF4, 0xFD, 0xF0, 0xE7, 0xFC, 0xE4, 0xE7, 0xB8, 0xAC, 0xC9, 
	0xF3, 0x00, 0x14, 0x0F, 0xFD, 0xEC, 0xFD, 0xD2, 0xC2, 0xEA, 0xEE, 0xF5, 0x18, 0xC5, 0xC4, 0x01, 
	0x4D, 0x11, 0xEF, 0xC6, 0xDF, 0x2B, 0xF8, 0x36, 0x13, 0x12, 0xAF, 0x24, 0xEC, 0xC0, 0xBB, 0xD2, 
	0xDC, 0xE3, 0xF0, 0xFA, 0xE9, 0xE1, 0xEC, 0xDF, 0xFC, 0xF8, 0x06, 0x05, 0x11, 0x08, 0xE4, 0xE5, 
	0xEB, 0xDC, 0xF5, 0x11, 0x20, 0x04, 0xD8, 0xE1, 0x10, 0x00, 0x0D, 0x0F, 0x23, 0x12, 0x4F, 0x13, 
	0x06, 0x3E, 0xEC, 0x7F, 0x22, 0x38, 0x56, 0x26, 0x21, 0x37, 0x39, 0x25, 0x1D, 0x04, 0x20, 0x0F, 
	0x06, 0x04, 0xF5, 0xFB, 0x06, 0xF7, 0x06, 0x08, 0x0C, 0x0A, 0x20, 0xFA, 0xE5, 0x0F, 0x2E, 0x25, 
	0x00, 0xE8, 0xD9, 0xDE, 0xEE, 0xD2, 0x04, 0xBB, 0x03, 0x24, 0x12, 0x39, 0x02, 0x42, 0x1A, 0x10, 
	0x05, 0x06, 0xFC, 0x01, 0x00, 0x04, 0x04, 0x03, 0x02, 0x06, 0x01, 0xF9, 0xFD, 0xE1, 0xEB, 0x08, 
	0x1D, 0x17, 0x0A, 0xF8, 0xE5, 0xFE, 0x2F, 0x20, 0xF7, 0x04, 0xF3, 0x08, 0x0D, 0xC8, 0x23, 0xC7, 
	0xFA, 0x00, 0xF8, 0xFD, 0x07, 0x03, 0xFB, 0xD8, 0xB8, 0xA2, 0x01, 0x77, 0x7F, 0x1A, 0xEC, 0x04, 
	0x34, 0x21, 0x05, 0x03, 0x13, 0x01, 0xFD, 0xEC, 0x05, 0x0D, 0x0E, 0xFD, 0xDD, 0xF9, 0xFC, 0xF8, 
	0xF6, 0xFB, 0x03, 0x03, 0x07, 0xFB, 0x04, 0x01, 0xFB, 0x00, 0xFB, 0xFD, 0x00, 0x00, 0x02, 0xF4, 
	0xE9, 0xE7, 0x03, 0x1B, 0x26, 0x14, 0xF5, 0xF7, 0x12, 0x05, 0xF8, 0xFE, 0x06, 0x0A, 0x08, 0x00, 
	0xFE, 0xF9, 0x07, 0x08, 0xF6, 0x07, 0x01, 0xFD, 0x03, 0x01, 0xFA, 0xF9, 0xFB, 0xF5, 0x08, 0xFE, 
	0xFA, 0x03, 0xF9, 0xFE, 0x00, 0xF6, 0xFE, 0x09, 0x04, 0x07, 0x03, 0xFB, 0xF7, 0xF8, 0xF0, 0xF5, 
	0x01, 0xFB, 0xF8, 0xFF, 0xFF, 0xFE, 0xFF, 0x02, 0x00, 0xF5, 0xF9, 0x01, 0x02, 0x09, 0xFB, 0x01, 
	0x00, 0x04, 0xFF, 0xFB, 0xFA, 0xF9, 0x08, 0x03, 0xF7, 0x30, 0x7F, 0x4A, 0x37, 0x2B, 0x05, 0xEC, 
	0xE0, 0xF0, 0xEC, 0xF9, 0xF9, 0xFC, 0x01, 0xFC, 0x04, 0xFF, 0x01, 0xFE, 0x02, 0xFD, 0xFF, 0x04, 
	0x03, 0xFD, 0xF6, 0xF8, 0xF4, 0xEF, 0xF9, 0x06, 0xFF, 0xF9, 0xFF, 0xFF, 0x00, 0x07, 0xF7, 0x09, 
	0x03, 0xE4, 0xDF, 0xE6, 0x01, 0xF7, 0x01, 0x0B, 0x03, 0x0D, 0x08, 0x04, 0x04, 0xFF, 0xFE, 0x00, 
	0xFC, 0xFF, 0xFE, 0xFE, 0x01, 0x01, 0xFF, 0xFE, 0xFB, 0xF6, 0xFF, 0x08, 0x0B, 0x06, 0x07, 0x03, 
	0x00, 0x03, 0x03, 0xFE, 0xFD, 0x05, 0xFA, 0xFB, 0xFD, 0xD4, 0xC8, 0xE6, 0xE1, 0xF1, 0xF6, 0xFC, 
	0x0C, 0x0F, 0x0F, 0x0B, 0x02, 0x02, 0x01, 0x00, 0xFF, 0x00, 0xFF, 0xFD, 0xFD, 0x01, 0x03, 0x01, 
	0x04, 0x07, 0x07, 0x00, 0x02, 0x08, 0x03, 0xFC, 0xFF, 0x02, 0xFF, 0xFF, 0xFB, 0x00, 0x06, 0xF5, 
	0xFA, 0x0C, 0xF8, 0x0C, 0x01, 0xF5, 0x08, 0xEC, 0xFB, 0xEA, 0x0B, 0xFA, 0xFB, 0xFD, 0x01, 0xFE, 
	0x16, 0x16, 0x1B, 0x1C, 0x2E, 0x41, 0x52, 0x53, 0x4E, 0x52, 0x6C, 0x71, 0x55, 0x49, 0x57, 0x45, 
	0x29, 0x1B, 0x0B, 0xF4, 0xEA, 0xE6, 0xFF, 0xCD, 0x0F, 0x03, 0x07, 0xE9, 0x02, 0xF8, 0xE7, 0x02, 
	0x05, 0xFA, 0x0C, 0xFB, 0xF9, 0xF7, 0xED, 0xE9, 0xD9, 0xD1, 0xC8, 0xD1, 0xCC, 0xC8, 0xB5, 0xB1, 
	0xA2, 0x85, 0x81, 0x94, 0xAA, 0xD2, 0xE7, 0xEF, 0xD8, 0xE6, 0x06, 0x0F, 0x08, 0x08, 0x1D, 0x3E, 
	0x15, 0xF1, 0xE6, 0x19, 0xFE, 0x11, 0x16, 0x13, 0x0C, 0x02, 0x02, 0x09, 0x17, 0x11, 0x12, 0x13, 
	0x0F, 0x0D, 0x0D, 0x07, 0xFC, 0xFA, 0xE5, 0xF6, 0x02, 0x01, 0x11, 0x04, 0xE8, 0xEE, 0xD5, 0xEF, 
	0xEC, 0x01, 0xFB, 0x00, 0x06, 0xFD, 0x0E, 0x0E, 0x07, 0x01, 0x10, 0xF9, 0xFE, 0xED, 0x25, 0xF1, 
	0xCA, 0x27, 0x21, 0xBC, 0x28, 0xFE, 0xEC, 0x0E, 0xF8, 0x02, 0x00, 0xF7, 0x07, 0x00, 0x06, 0x02, 
	0x00, 0xFC, 0xFA, 0xFE, 0x03, 0x06, 0xF5, 0xFB, 0x05, 0x01, 0xFC, 0x02, 0x0A, 0x0B, 0x07, 0xFC, 
	0x0F, 0xEC, 0xF2, 0xCD, 0x37, 0x2A, 0xCC, 0x9E, 0x7F, 0x1C, 0x8C, 0x4A, 0x05, 0xC9, 0x3B, 0xDE, 
	0x18, 0xF1, 0x01, 0x05, 0xFD, 0x04, 0xFC, 0x00, 0xFC, 0x00, 0x0B, 0x03, 0xFF, 0xFC, 0x04, 0x06, 
	0xFC, 0x06, 0x02, 0xF7, 0xFA, 0xF8, 0xFC, 0x08, 0x07, 0xE4, 0xF6, 0x11, 0x47, 0xBD, 0xB9, 0x50, 
	0x60, 0x8C, 0xF5, 0x57, 0xBC, 0x1D, 0x0B, 0xE8, 0x1A, 0xF2, 0x0E, 0xF9, 0x04, 0xFD, 0x00, 0x01, 
	0xFB, 0xFE, 0x02, 0x0A, 0xFC, 0xF9, 0x02, 0x03, 0xFE, 0x0A, 0x07, 0xFA, 0xFC, 0xFB, 0xF8, 0x0A, 
	0xFD, 0x01, 0x03, 0xFA, 0x0B, 0xFB, 0xFD, 0x06, 0xF1, 0x2E, 0xC5, 0x19, 0xFF, 0xFD, 0xFD, 0x06, 
	0xF9, 0x03, 0x02, 0xFA, 0x02, 0xFE, 0x01, 0x01, 0x01, 0xFF, 0xFE, 0xFE, 0x01, 0xFF, 0x00, 0xFF, 
	0xFF, 0x00, 0xFF, 0x02, 0x04, 0x01, 0x02, 0x00, 0x04, 0xFC, 0x09, 0xF3, 0xFB, 0x05, 0xFC, 0x0D, 
	0xB7, 0x7F, 0xC1, 0xF7, 0x14, 0x03, 0xF1, 0x14, 0xF4, 0x05, 0xFC, 0x06, 0xFD, 0x04, 0xFC, 0x01, 
	0x02, 0xFF, 0x04, 0x01, 0xFF, 0x00, 0x00, 0x00, 0x01, 0x00, 0x00, 0xFD, 0xFD, 0xFF, 0xFF, 0x02, 
	0x01, 0x01, 0x01, 0xFE, 0xF8, 0x0B, 0xF7, 0x14, 0xC4, 0x43, 0xE8, 0xF7, 0x03, 0x06, 0xFB, 0x00, 
	0xFE, 0x01, 0xFC, 0x05, 0xFD, 0x04, 0xFE, 0x01, 0xFF, 0x00, 0x00, 0x01, 0xFF, 0x01, 0xFE, 0x01, 
	0xFF, 0x00, 0x01, 0xFF, 0xFF, 0x00, 0x02, 0xFF, 0xF8, 0x05, 0x03, 0xFF, 0xFE, 0xFF, 0x02, 0xFE, 
	0xFF, 0x00, 0xF2, 0xD9, 0xC4, 0xDA, 0x2F, 0x54, 0x23, 0x06, 0xFB, 0xFB, 0x08, 0x0C, 0x01, 0xFE, 
	0xFB, 0x06, 0x0B, 0x03, 0xF7, 0xFB, 0xFC, 0xFF, 0xFC, 0x04, 0x09, 0xFC, 0x00, 0x01, 0xFE, 0x05, 
	0xFD, 0x09, 0xFA, 0xFE, 0xF5, 0x01, 0x07, 0x13, 0x0C, 0xFF, 0xEB, 0x09, 0x4E, 0x7F, 0x21, 0xB1, 
	0xC2, 0xEC, 0xEA, 0xEC, 0xFB, 0xF9, 0xFE, 0x00, 0xF3, 0xF0, 0xEB, 0x01, 0x11, 0x00, 0x02, 0xFA, 
	0xFF, 0x02, 0xFF, 0xFD, 0xFE, 0x07, 0x02, 0x04, 0x06, 0x04, 0xFF, 0x01, 0x02, 0x04, 0x04, 0xFF, 
	0xFD, 0x00, 0x0F, 0x1C, 0x01, 0xDD, 0xD3, 0xF2, 0x05, 0x0C, 0x05, 0xFD, 0x00, 0xFE, 0x01, 0x09, 
	0xFD, 0x05, 0x05, 0xFE, 0x05, 0x03, 0xFF, 0xFB, 0xFC, 0xFD, 0xFD, 0xFF, 0x05, 0x03, 0xFB, 0xFD, 
	0x0C, 0x06, 0xCD, 0x20, 0x1D, 0xEC, 0x91, 0x7F, 0xFB, 0xB8, 0x50, 0xBB, 0x17, 0x0A, 0xF7, 0x05, 
	0xF8, 0x05, 0xF8, 0x04, 0x00, 0x01, 0x00, 0x05, 0xFF, 0xFB, 0xFF, 0x04, 0xFE, 0xFF, 0xFF, 0x03, 
	0x03, 0x03, 0xFF, 0xFF, 0x02, 0x00, 0x00, 0x05, 0x09, 0xDD, 0x0D, 0x22, 0xF9, 0x9C, 0x51, 0x4C, 
	0x87, 0x53, 0xEA, 0xDD, 0x42, 0xD2, 0x1A, 0xF4, 0x0E, 0xFA, 0x02, 0x01, 0x01, 0x01, 0xFF, 0xFE, 
	0xFE, 0x00, 0x06, 0x03, 0x00, 0x01, 0x00, 0xFE, 0xFD, 0x02, 0x02, 0xFB, 0xFF, 0xFD, 0xFA, 0x0B, 
	0xFB, 0xFB, 0xFF, 0x18, 0xDE, 0xEF, 0x4B, 0xC8, 0x09, 0x01, 0xEB, 0x25, 0xEE, 0x05, 0xFC, 0x08, 
	0xFA, 0xFE, 0x04, 0xFD, 0x05, 0xFE, 0x03, 0xFD, 0xFE, 0x00, 0x02, 0x03, 0xF9, 0xFF, 0x01, 0xFD, 
	0x01, 0x03, 0xFF, 0x00, 0xFF, 0xFF, 0xFE, 0x04, 0x0D, 0x06, 0xEB, 0xD4, 0x0F, 0x42, 0xE5, 0xC5, 
	0x02, 0x61, 0xD2, 0xAF, 0x7F, 0xC3, 0xF7, 0x2C, 0xE6, 0x07, 0x01, 0xFF, 0x0A, 0xFB, 0xFE, 0xFE, 
	0xFB, 0xFC, 0x0B, 0x05, 0x00, 0xF8, 0xFF, 0x0C, 0x03, 0x01, 0x02, 0xFE, 0xF7, 0xFC, 0xFB, 0x0D, 
	0x03, 0xFC, 0xEC, 0x07, 0x1B, 0x02, 0xD3, 0xF8, 0x37, 0xFA, 0xD5, 0x14, 0x20, 0xD8, 0x16, 0xF5, 
	0x05, 0xFC, 0x04, 0xFB, 0x02, 0x03, 0x00, 0x04, 0xFF, 0xFF, 0xFC, 0x03, 0x01, 0x01, 0x00, 0xFF, 
	0x01, 0x05, 0xFE, 0xFB, 0x02, 0x01, 0xFD, 0x01, 0xFE, 0xF7, 0x00, 0xFF, 0x06, 0x02, 0xF0, 0x03, 
	0x0B, 0xF6, 0x06, 0xFD, 0x04, 0x02, 0xF8, 0x06, 0xFC, 0xFF, 0x03, 0xFC, 0x03, 0x03, 0xFF, 0x03, 
	0x02, 0xFC, 0x01, 0x00, 0x00, 0x00, 0xFC, 0xFB, 0x04, 0x05, 0xFC, 0x06, 0x02, 0x04, 0x00, 0xFF, 
	0x03, 0x06, 0x0C, 0xF8, 0xFD, 0xF9, 0xF9, 0x03, 0x07, 0x07, 0x02, 0xF7, 0xE9, 0xE5, 0xE1, 0xFA, 
	0xF4, 0xE3, 0xE8, 0x2B, 0x7F, 0x66, 0x0D, 0xD8, 0xD4, 0xEF, 0xF4, 0xFB, 0xEB, 0xF9, 0xF3, 0xF5, 
	0x0A, 0x05, 0x01, 0xFA, 0xFD, 0x09, 0xFA, 0x08, 0x04, 0x01, 0x01, 0xF4, 0xFB, 0xF5, 0xF5, 0xF6, 
	0xFB, 0x03, 0x06, 0xFF, 0xF7, 0xEB, 0xF8, 0x02, 0xF6, 0x03, 0x28, 0x53, 0x45, 0x04, 0xE6, 0xDA, 
	0xE4, 0xE9, 0xF5, 0x0F, 0xFC, 0xFD, 0x06, 0xFA, 0xF8, 0xFD, 0xFF, 0x03, 0x05, 0x07, 0xFE, 0x09, 
	0x05, 0xFD, 0x06, 0xFB, 0xF6, 0xFA, 0xFC, 0xFA, 0xFF, 0xFB, 0x00, 0xFE, 0xFB, 0xF7, 0xFE, 0x03, 
	0x05, 0x15, 0x1C, 0x1B, 0x03, 0xFE, 0xFC, 0xF5, 0xF0, 0xEF, 0xFB, 0x12, 0xFD, 0xFA, 0x04, 0x01, 
	0x04, 0x00, 0xFC, 0xF9, 0x02, 0xFA, 0x03, 0xF4, 0xED, 0x08, 0xE0, 0xD8, 0x17, 0xFF, 0x00, 0x0C, 
	0xFF, 0x07, 0x02, 0x00, 0xFD, 0x03, 0x01, 0x02, 0x00, 0xFF, 0xFE, 0xFD, 0x05, 0xFE, 0xFF, 0xFC, 
	0x04, 0x05, 0x00, 0x02, 0x00, 0x02, 0x00, 0x02, 0xFB, 0xFF, 0x01, 0x02, 0x01, 0xFF, 0x04, 0xF8, 
	0xFB, 0xFE, 0xC9, 0xDB, 0x1C, 0x06, 0xFA, 0x02, 0xFB, 0xFB, 0xF9, 0x03, 0xFD, 0x01, 0xFD, 0x01, 
	0x01, 0x03, 0xFE, 0x02, 0xFE, 0x01, 0x03, 0x01, 0xFD, 0xFF, 0xFA, 0xFE, 0x02, 0x03, 0x00, 0x02, 
	0x04, 0xFE, 0x00, 0x00, 0x00, 0xFC, 0x05, 0xFD, 0x0B, 0xEB, 0x75, 0x7F, 0xBE, 0xFB, 0xFD, 0xF9, 
	0x01, 0x01, 0xFA, 0x02, 0x01, 0xFE, 0x01, 0xFE, 0x01, 0xFF, 0x00, 0x00, 0xFC, 0xFE, 0xFD, 0x03, 
	0x03, 0x02, 0x00, 0xFD, 0xFF, 0xFF, 0xFD, 0xFC, 0xFF, 0x00, 0xFF, 0x00, 0x01, 0xFC, 0x01, 0x01, 
	0x0E, 0xE4, 0xF2, 0x48, 0xDA, 0xA5, 0x7F, 0xE2, 0xE4, 0x2C, 0xD5, 0x1F, 0xFF, 0xF7, 0x05, 0x02, 
	0x01, 0xFD, 0x03, 0xFF, 0x03, 0xFD, 0x03, 0xFD, 0x00, 0xFF, 0x05, 0x00, 0x00, 0x01, 0x00, 0x01, 
	0xFF, 0x03, 0x01, 0xFF, 0x00, 0x00, 0x00, 0x01, 0x07, 0xF8, 0xFD, 0x1F, 0xC3, 0xFE, 0x42, 0xBB, 
	0x1D, 0x00, 0xED, 0x1E, 0xE8, 0x0C, 0xFB, 0x06, 0xFA, 0x04, 0x02, 0xFC, 0x04, 0xFD, 0x02, 0xFF, 
	0x01, 0xFF, 0x02, 0x01, 0xFD, 0x02, 0x01, 0x00, 0xFE, 0x00, 0xFD, 0x03, 0x00, 0x00, 0xFE, 0x02, 
	0xFC, 0xFE, 0x06, 0x04, 0xED, 0x12, 0xFC, 0xFC, 0x01, 0xFF, 0x0A, 0xF6, 0x01, 0x02, 0x00, 0xFB, 
	0x04, 0xFF, 0xFE, 0x00, 0x01, 0x00, 0x00, 0xFE, 0x01, 0xFF, 0x00, 0x00, 0xFF, 0x02, 0x00, 0xFF, 
	0x01, 0xFF, 0x01, 0x02, 0xFF, 0x00, 0x01, 0xFF, 0xFC, 0x0B, 0xF8, 0x09, 0xE7, 0x12, 0x2D, 0xB9, 
	0x1D, 0xF6, 0xFF, 0x08, 0xF2, 0x07, 0x05, 0xF8, 0x06, 0xFE, 0x00, 0x00, 0x00, 0xFE, 0x01, 0x00, 
	0x02, 0xFD, 0x01, 0xFF, 0x01, 0x02, 0x00, 0xFF, 0x02, 0xFF, 0x01, 0x01, 0x01, 0x00, 0x01, 0x00, 
	0x02, 0x01, 0xF1, 0x1B, 0xF1, 0xB7, 0x7F, 0xD1, 0xF5, 0x16, 0xEB, 0x1F, 0xF1, 0xFC, 0x0A, 0xFD, 
	0xFF, 0x02, 0x00, 0x00, 0x04, 0xFF, 0x01, 0xFF, 0x00, 0x01, 0x00, 0x01, 0x01, 0x00, 0xFE, 0xFE, 
	0x00, 0x00, 0xFE, 0x00, 0xFF, 0x00, 0xFE, 0xFF, 0x04, 0xFA, 0xFF, 0x01, 0x0B, 0xB5, 0x3C, 0x06, 
	0xF4, 0xFE, 0xFB, 0x06, 0x04, 0xF9, 0xFE, 0x06, 0xFA, 0x04, 0x00, 0xFE, 0x01, 0xFF, 0x02, 0xFF, 
	0xFE, 0x00, 0x01, 0x00, 0x00, 0x00, 0x00, 0x01, 0x00, 0x01, 0x01, 0xFE, 0x03, 0xFE, 0x02, 0x00, 
	0x0B, 0xD5, 0xDC, 0x5E, 0x00, 0xE6, 0xFA, 0x15, 0xF0, 0x08, 0xFF, 0x03, 0xFE, 0x02, 0x03, 0xFC, 
	0x06, 0xF8, 0x02, 0x01, 0x04, 0xFD, 0x02, 0xF9, 0x00, 0x00, 0x00, 0x04, 0xFA, 0xFC, 0x01, 0xFF, 
	0x04, 0x02, 0x02, 0x01, 0xFC, 0x01, 0xFE, 0x02, 0x03, 0xC9, 0xCB, 0x7F, 0xFE, 0xD7, 0xED, 0x2A, 
	0xE4, 0x08, 0xFD, 0x04, 0xFA, 0x06, 0x03, 0xFA, 0x02, 0xFB, 0x01, 0x00, 0x03, 0xFE, 0x02, 0x01, 
	0x01, 0x00, 0xFB, 0x02, 0x03, 0x01, 0x02, 0xFF, 0x02, 0xFF, 0xFA, 0xFF, 0x02, 0x02, 0xFF, 0x03, 
	0x0F, 0xE8, 0xDD, 0x41, 0xFE, 0xF7, 0xFC, 0xFB, 0x04, 0x07, 0xF6, 0x05, 0x01, 0xFE, 0x06, 0xFE, 
	0x00, 0xFE, 0xFE, 0x02, 0x02, 0xFF, 0xFE, 0xFE, 0x01, 0xFF, 0x01, 0x06, 0xFE, 0xF9, 0x00, 0x02, 
	0x03, 0x00, 0x01, 0xFF, 0xFC, 0x01, 0xFE, 0x06, 0xFC, 0xFE, 0x03, 0x07, 0xF5, 0xFF, 0xFB, 0x02, 
	0x3B, 0xB4, 0x18, 0x0B, 0xE7, 0x10, 0xFD, 0xF8, 0x0C, 0xF6, 0x07, 0xFB, 0x01, 0xFC, 0x03, 0x00, 
	0x01, 0xFE, 0xFF, 0xFF, 0x02, 0x02, 0x00, 0x00, 0xFF, 0xFF, 0x02, 0x02, 0x01, 0x00, 0x02, 0x00, 
	0x03, 0x05, 0xFA, 0xFF, 0xFE, 0x04, 0xF2, 0xC7, 0x7F, 0xC9, 0xDA, 0x3A, 0xE7, 0xFC, 0x19, 0xE7, 
	0x10, 0xF7, 0x08, 0xFC, 0x02, 0xFE, 0x01, 0x01, 0x00, 0x01, 0x02, 0xFF, 0x00, 0x01, 0xFE, 0x00, 
	0x00, 0x03, 0xFE, 0xFE, 0x00, 0xFC, 0x02, 0x00, 0x05, 0xFC, 0x02, 0xFE, 0xFE, 0x04, 0x05, 0xBB, 
	0x48, 0xFB, 0xE6, 0x0E, 0xFF, 0xF8, 0x0B, 0xF8, 0x04, 0xFE, 0x01, 0x00, 0x02, 0x02, 0xFF, 0x01, 
	0xFC, 0x00, 0x03, 0xFF, 0x01, 0x00, 0xFF, 0x02, 0x00, 0x00, 0x00, 0xFF, 0xFF, 0x02, 0x01, 0x01, 
	0xFF, 0x0E, 0x0A, 0x02, 0x03, 0x03, 0xFE, 0xF4, 0xF3, 0x04, 0x1B, 0x1E, 0x07, 0xE7, 0xC1, 0xB6, 
	0xC2, 0xEE, 0x13, 0x18, 0x06, 0xF2, 0xE8, 0xF4, 0x06, 0x0E, 0x13, 0x19, 0xFB, 0xE0, 0xEA, 0x0A, 
	0x0F, 0xFD, 0xF9, 0x04, 0x0C, 0x0E, 0x0A, 0xF8, 0x00, 0xF4, 0xEE, 0xFB, 0xF8, 0xF0, 0x08, 0x11, 
	0x07, 0xF3, 0xD8, 0xD6, 0xFA, 0x2E, 0x6B, 0x7F, 0x6A, 0x31, 0xFF, 0xE5, 0xEA, 0xF5, 0xFD, 0x03, 
	0x03, 0xEB, 0xE4, 0xFF, 0x14, 0x02, 0xE7, 0xE6, 0xF6, 0xFB, 0xF9, 0xF6, 0xF7, 0xF7, 0x07, 0x0A, 
	0xFA, 0x05, 0x14, 0xFA, 0x04, 0x0A, 0x01, 0x00, 0xFD, 0xFB, 0xF7, 0xF6, 0xF8, 0xFE, 0xF5, 0xE7, 
	0xE6, 0xF7, 0x03, 0x09, 0x09, 0x01, 0xFB, 0x05, 0x09, 0x04, 0xF3, 0xF1, 0x05, 0x12, 0x13, 0x0C, 
	0x07, 0x0A, 0x01, 0xFE, 0x02, 0x00, 0x02, 0xF4, 0xF9, 0x01, 0x14, 0xE2, 0xF2, 0x68, 0x95, 0x23, 
	0xFF, 0xF5, 0x14, 0xDA, 0x27, 0xED, 0xFC, 0x12, 0xEB, 0x11, 0xF1, 0x0B, 0xF7, 0x04, 0xFC, 0x02, 
	0xFD, 0xFE, 0x01, 0x00, 0x01, 0x00, 0x00, 0xFE, 0x04, 0x01, 0xFF, 0x01, 0x02, 0x01, 0xFD, 0x05, 
	0x09, 0xF0, 0x0A, 0x21, 0x8A, 0x7F, 0xED, 0xCD, 0x38, 0xC4, 0x4B, 0xCA, 0x11, 0x07, 0xF7, 0x05, 
	0xFE, 0x02, 0x00, 0x03, 0xFE, 0x05, 0xFE, 0x01, 0x00, 0x00, 0x02, 0x04, 0x00, 0x01, 0xFE, 0xFF, 
	0xFC, 0x02, 0xFE, 0xFF, 0xFE, 0xFF, 0x00, 0x00, 0x09, 0xF3, 0x04, 0x18, 0xB9, 0x2F, 0x15, 0xD5, 
	0x1C, 0xEF, 0x0A, 0xF8, 0xFD, 0x08, 0xF7, 0x06, 0x01, 0x00, 0x02, 0xFE, 0x02, 0x00, 0xFD, 0x02, 
	0x00, 0xFE, 0x02, 0x02, 0xFD, 0x02, 0xFF, 0x00, 0x00, 0x00, 0xFF, 0x03, 0x00, 0xFF, 0x03, 0xFF, 
	0xEA, 0xF9, 0xFB, 0xF6, 0xEF, 0xE1, 0xC1, 0xD5, 0xE5, 0x0D, 0x2A, 0x53, 0x64, 0x6F, 0x66, 0x5C, 
	0x54, 0x44, 0x39, 0x1D, 0xFD, 0xDE, 0xDB, 0xD7, 0xCC, 0xCB, 0xD4, 0xDD, 0xFF, 0xF9, 0x00, 0xFB, 
	0xF0, 0xEE, 0x02, 0x07, 0x06, 0xF5, 0xF1, 0xE2, 0xFF, 0xF9, 0xEE, 0x0E, 0xFA, 0xFF, 0xFC, 0xFE, 
	0x03, 0x19, 0x09, 0x08, 0x00, 0x11, 0x16, 0x07, 0x05, 0xFC, 0x05, 0xF6, 0xEB, 0xF4, 0xFE, 0x11, 
	0xF8, 0xF8, 0x05, 0xFF, 0xF9, 0x08, 0x0D, 0x07, 0x05, 0xFD, 0x01, 0x03, 0x07, 0x0F, 0x02, 0x04, 
	0x08, 0x13, 0x0C, 0x19, 0x22, 0x2E, 0x42, 0x2F, 0x19, 0xFB, 0xCB, 0xBC, 0xA6, 0x94, 0x85, 0x81, 
	0xA1, 0xAC, 0xBE, 0xC8, 0x04, 0x36, 0x2C, 0x25, 0x38, 0x37, 0x35, 0x1B, 0x05, 0x00, 0xFD, 0x02, 
	0x0E, 0x17, 0xF2, 0x08, 0xFF, 0x10, 0xEF, 0x25, 0x12, 0xF0, 0xF4, 0x00, 0xFC, 0x13, 0x00, 0xF9, 
	0xEC, 0xFA, 0x05, 0x13, 0x0F, 0x1E, 0x1F, 0x12, 0x00, 0xF5, 0xFB, 0xF5, 0xB7, 0x8A, 0xA9, 0x10, 
	0x56, 0x3C, 0x10, 0x0D, 0x05, 0xEC, 0xFD, 0x06, 0x08, 0xE6, 0xF8, 0x23, 0x17, 0x07, 0xFA, 0xF5, 
	0x0C, 0xEE, 0xFF, 0x13, 0x04, 0x12, 0x01, 0x05, 0xFB, 0x08, 0x02, 0x23, 0x24, 0x1E, 0x08, 0xFC, 
	0xF0, 0xD6, 0xC7, 0xC1, 0x9E, 0x93, 0xAD, 0x19, 0x7F, 0x64, 0x16, 0x10, 0x21, 0xF0, 0xD7, 0x15, 
	0x33, 0x08, 0xED, 0x02, 0x0A, 0xF1, 0xFA, 0x01, 0x0D, 0xEA, 0x04, 0x00, 0x04, 0x0C, 0xF6, 0xF7, 
	0xF9, 0xFC, 0x04, 0xFE, 0x0E, 0x0B, 0x08, 0x07, 0xFA, 0xE1, 0xDC, 0xDF, 0xED, 0x12, 0x19, 0x27, 
	0x31, 0x05, 0xEE, 0xEE, 0x0D, 0x0B, 0xDE, 0xF7, 0x07, 0xFB, 0x0A, 0x04, 0x0A, 0x02, 0xF2, 0x0F, 
	0xFA, 0xFD, 0xFA, 0xFF, 0x02, 0xF9, 0xFE, 0xFD, 0x00, 0x01, 0x03, 0xFC, 0xF9, 0xF7, 0xFC, 0xFE, 
	0x03, 0x08, 0x00, 0x00, 0x06, 0x07, 0x12, 0x15, 0x11, 0x12, 0x14, 0x03, 0x04, 0x03, 0xF5, 0xFB, 
	0xFB, 0xE8, 0xE5, 0xEA, 0xDC, 0xBE, 0xB4, 0x90, 0xF2, 0x00, 0xFB, 0xFC, 0x08, 0xFE, 0x07, 0x03, 
	0x00, 0xFB, 0x01, 0xFF, 0xFD, 0xFF, 0xFE, 0xF9, 0xF6, 0xF8, 0xFB, 0x04, 0x03, 0xF8, 0xFB, 0x06, 
	0x0B, 0x0D, 0x02, 0x04, 0x07, 0xFE, 0xF2, 0x06, 0x0F, 0x00, 0x0A, 0x08, 0x0F, 0x03, 0xF0, 0x12, 
	0xFB, 0x02, 0x02, 0x05, 0x10, 0x0B, 0x07, 0x0B, 0x06, 0x04, 0x07, 0x05, 0x09, 0x08, 0x04, 0x04, 
	0xFF, 0xFE, 0xFC, 0xFF, 0xFF, 0xF9, 0xEC, 0xE7, 0xE8, 0xF0, 0xFB, 0xFB, 0xFC, 0xF4, 0x09, 0x07, 
	0x0C, 0x12, 0x20, 0x13, 0x26, 0x46, 0x2C, 0x7F, 0x45, 0xCA, 0x06, 0xE1, 0xF3, 0xF3, 0xF5, 0x0A, 
	0x11, 0x23, 0x18, 0x17, 0x02, 0x03, 0x17, 0x0C, 0xFF, 0x14, 0x09, 0x05, 0x19, 0x12, 0x25, 0x1B, 
	0x0B, 0x0A, 0x04, 0xFE, 0x06, 0x01, 0xFE, 0xFA, 0x01, 0x02, 0xFD, 0xFC, 0xEA, 0x00, 0xBE, 0x7F, 
	0x17, 0xF3, 0x06, 0xF8, 0x00, 0x03, 0x02, 0x04, 0xFC, 0x03, 0x04, 0x05, 0x0A, 0x08, 0xFF, 0x04, 
	0x04, 0x07, 0x03, 0xFF, 0xFD, 0x01, 0xFC, 0xF4, 0xF9, 0xFD, 0x06, 0xFB, 0x05, 0x04, 0xFD, 0xFE, 
	0x05, 0xFD, 0xF9, 0x03, 0xF0, 0x08, 0xEE, 0x12, 0x08, 0xF8, 0x10, 0xFE, 0x06, 0x0C, 0x08, 0x02, 
	0xFA, 0xF9, 0xFC, 0x00, 0x04, 0x00, 0xFA, 0xFF, 0xFC, 0xFB, 0xF9, 0xF8, 0x00, 0xF6, 0xF3, 0xF4, 
	0xFA, 0xFB, 0x01, 0xFB, 0x02, 0x02, 0x02, 0x00, 0xFF, 0xFD, 0x02, 0x0C, 0x01, 0x10, 0x0A, 0xD6, 
	0x05, 0xF4, 0xE5, 0x00, 0x00, 0x05, 0x17, 0x1B, 0x10, 0xF9, 0xEE, 0xD2, 0xD6, 0xDB, 0xE1, 0xE0, 
	0xF8, 0x33, 0x6E, 0x7F, 0x4E, 0xFB, 0xC2, 0xC9, 0xEB, 0x02, 0x0C, 0x0A, 0x0E, 0x04, 0x0C, 0x28, 
	0x10, 0x04, 0x11, 0x01, 0xFE, 0xF8, 0x00, 0xE1, 0xF7, 0x02, 0x09, 0x0B, 0x0E, 0x03, 0xF8, 0xF3, 
	0xF9, 0xFA, 0x09, 0x03, 0xFF, 0x01, 0x0F, 0x17, 0x14, 0x08, 0xEA, 0xCB, 0xDE, 0x05, 0x03, 0xE6, 
	0xDA, 0xEF, 0x02, 0x04, 0x13, 0x15, 0x0C, 0x19, 0x0D, 0xFF, 0x07, 0xF6, 0xF1, 0xFC, 0xFB, 0xF8, 
	0xFA, 0x0F, 0x10, 0xF5, 0x06, 0xFB, 0xEE, 0xF5, 0xF3, 0xF4, 0x01, 0x0B, 0x12, 0x10, 0x0E, 0x03, 
	0xF0, 0xE6, 0xD3, 0xCF, 0xF9, 0x27, 0x41, 0x2D, 0x1C, 0x1F, 0x1E, 0xEE, 0xE4, 0xE3, 0xD0, 0xD1, 
	0xD9, 0xEF, 0x03, 0xEE, 0xFC, 0x12, 0x07, 0x26, 0xF5, 0x03, 0xFF, 0xF4, 0x10, 0x05, 0x07, 0xFB, 
	0xF9, 0xF1, 0x03, 0xF5, 0xF0, 0xEE, 0x05, 0x1F, 0x29, 0x1B, 0xF9, 0xEA, 0xFE, 0x12, 0x31, 0x1F, 
	0xCA, 0x81, 0xA4, 0x07, 0x17, 0xCB, 0xB6, 0x14, 0x44, 0x13, 0xF0, 0xF9, 0x02, 0xF3, 0x0F, 0x23, 
	0xFE, 0xE7, 0xE8, 0xF3, 0x02, 0xF7, 0x0B, 0x07, 0xFA, 0xF5, 0xF8, 0x00, 0x07, 0x14, 0x09, 0xE7, 
	0xD3, 0xE1, 0xF3, 0xF9, 0xFA, 0xEA, 0xE1, 0xFA, 0x2F, 0x65, 0x3F, 0x25, 0x42, 0x47, 0x2D, 0x20, 
	0xFB, 0xFA, 0x05, 0x03, 0x09, 0x01, 0x0E, 0xFD, 0xF5, 0x24, 0x25, 0xF3, 0x06, 0x0D, 0xFF, 0xFA, 
	0xFA, 0xF3, 0xF9, 0x0A, 0x0E, 0x0F, 0x07, 0xF6, 0xF9, 0x08, 0x06, 0xFF, 0x0A, 0xFC, 0xF3, 0x03, 
	0x0F, 0x22, 0x0A, 0xD0, 0xD4, 0xF4, 0xF5, 0xE9, 0xDA, 0xF0, 0xFB, 0xFB, 0xF8, 0xFB, 0x06, 0xE7, 
	0xF9, 0x01, 0xFB, 0x0A, 0x05, 0xFC, 0x05, 0x03, 0x00, 0x01, 0xFC, 0x02, 0x03, 0xFF, 0x01, 0xFD, 
	0xFD, 0xFF, 0xFE, 0x01, 0x01, 0x03, 0xFD, 0xF9, 0x00, 0x00, 0xFE, 0x07, 0x01, 0x00, 0xFC, 0x0B, 
	0x05, 0xFA, 0x06, 0xFA, 0x01, 0xF9, 0x3B, 0xA9, 0xFE, 0x02, 0xFA, 0xFF, 0xFF, 0xFD, 0xFB, 0xFA, 
	0xF9, 0xF7, 0x00, 0x00, 0xFE, 0x00, 0xFF, 0xFE, 0x01, 0xFD, 0x02, 0xFF, 0x03, 0x00, 0xFF, 0xFD, 
	0xFD, 0xF9, 0xFE, 0xFD, 0xFC, 0xFE, 0xF9, 0x05, 0x06, 0x05, 0x16, 0x10, 0x1F, 0x0B, 0x49, 0x81, 
	0x0A, 0x0B, 0xFD, 0x07, 0x0D, 0x06, 0x0A, 0x02, 0x05, 0xFD, 0xFE, 0x03, 0x04, 0x07, 0x01, 0x00, 
	0x01, 0x00, 0x00, 0xFF, 0x02, 0x01, 0xFF, 0x00, 0xFF, 0x00, 0x03, 0x08, 0x07, 0x03, 0xFA, 0x06, 
	0x0A, 0x04, 0x0B, 0xF1, 0x08, 0xF4, 0x46, 0xCF, 0x05, 0xF6, 0x06, 0xE7, 0x08, 0xFD, 0xFD, 0x07, 
	0xF8, 0x04, 0xFF, 0x00, 0xFF, 0x03, 0xFD, 0x01, 0x00, 0x00, 0x00, 0x00, 0x00, 0xFF, 0x00, 0xFF, 
	0xFF, 0x01, 0x01, 0x00, 0x01, 0x00, 0x00, 0x00, 0x00, 0x00, 0x00, 0x01, 0x00, 0x00, 0xFF, 0x01, 
	0xF7, 0xF6, 0x7F, 0xBD, 0x03, 0xFF, 0xF0, 0x15, 0xF8, 0x04, 0xFD, 0x01, 0xFF, 0x00, 0x00, 0x00, 
	0x00, 0x02, 0x00, 0x00, 0xFF, 0x00, 0x01, 0x02, 0x02, 0x03, 0xFF, 0xFE, 0x00, 0x00, 0xFE, 0xFF, 
	0xFF, 0xFF, 0xFE, 0x01, 0x00, 0x01, 0x01, 0xFF, 0xFE, 0xF3, 0x12, 0xE6, 0x08, 0xFE, 0x00, 0x02, 
	0x00, 0x01, 0xFF, 0x00, 0x01, 0xFF, 0x01, 0xFF, 0x00, 0x01, 0x00, 0xFF, 0x00, 0xFF, 0x00, 0x01, 
	0xFF, 0x01, 0x00, 0xFE, 0x01, 0x02, 0xFF, 0x00, 0x00, 0x00, 0xFF, 0x00, 0x00, 0x00, 0x01, 0xFD, 
	0x04, 0xE9, 0xDA, 0x51, 0x29, 0x52, 0x7F, 0x74, 0x7E, 0x4E, 0x2D, 0x0C, 0x0E, 0xEC, 0xEB, 0xF4, 
	0xEC, 0xEC, 0xEC, 0x0F, 0xF8, 0xE4, 0xCC, 0xD6, 0xDE, 0xE2, 0xF4, 0xE5, 0xC4, 0xD0, 0xCA, 0xD2, 
	0xE3, 0xEE, 0xF4, 0xC2, 0xE9, 0xF8, 0x2E, 0x17, 0xE1, 0x31, 0x0F, 0xDA, 0x14, 0xE9, 0xF8, 0xE4, 
	0x0D, 0xF0, 0x04, 0xFA, 0x11, 0x0B, 0x08, 0x00, 0x09, 0x14, 0x0B, 0x09, 0x13, 0x14, 0x1D, 0x12, 
	0x15, 0x06, 0x0F, 0x10, 0xF6, 0x0C, 0x19, 0x1E, 0x22, 0x1B, 0x26, 0xFC, 0xFF, 0x05, 0x1A, 0xCD, 
	0xCC, 0x0E, 0xC5, 0xBC, 0xC1, 0xB9, 0xBC, 0xC4, 0xC6, 0xCC, 0xFB, 0xF3, 0xFB, 0xF0, 0xFA, 0x04, 
	0x05, 0x06, 0x00, 0x02, 0xFE, 0xF1, 0x0E, 0x14, 0x0E, 0x0C, 0x14, 0x23, 0x25, 0x2C, 0x32, 0x21, 
	0x0B, 0xFF, 0x17, 0x1C, 0xFF, 0xE9, 0xF0, 0xCE, 0xF3, 0xFF, 0x06, 0xF8, 0x06, 0x03, 0x2F, 0x57, 
	0x4F, 0x25, 0xC7, 0x95, 0xD4, 0xFC, 0x0A, 0x05, 0xFC, 0xEB, 0xED, 0xF0, 0xEB, 0x09, 0xFC, 0xFE, 
	0x0B, 0x0D, 0xFD, 0xF4, 0x0B, 0xFB, 0x16, 0xFE, 0x01, 0x0D, 0xFE, 0xF8, 0xFE, 0x0C, 0x03, 0x0E, 
	0xFE, 0xFC, 0x0D, 0x16, 0x0E, 0x0F, 0xFC, 0x25, 0x64, 0x7F, 0xF2, 0x86, 0xAD, 0x04, 0x2C, 0x1D, 
	0x0B, 0xF6, 0xF2, 0x06, 0xEE, 0xF8, 0xF7, 0xFF, 0x11, 0x0E, 0x10, 0xFC, 0xEE, 0xFA, 0x0E, 0xEF, 
	0xE4, 0xFA, 0xF7, 0xF2, 0xF7, 0x01, 0xF7, 0x02, 0x02, 0xDD, 0xF8, 0x08, 0xFC, 0xFF, 0xFA, 0xF1, 
	0x03, 0x1D, 0x0A, 0xE9, 0xE3, 0xFF, 0xFD, 0xF3, 0xFA, 0x03, 0x03, 0x09, 0xF6, 0xFD, 0xFC, 0xFD, 
	0xFF, 0xFC, 0x08, 0x05, 0xFB, 0xFE, 0x10, 0xFF, 0xFD, 0x0A, 0x03, 0x01, 0xF8, 0x08, 0x0A, 0xF6, 
	0x02, 0xF8, 0x07, 0xFE, 0x00, 0x02, 0xF9, 0xFC, 0xFA, 0xFC, 0xFF, 0x03, 0x09, 0x0D, 0xF1, 0xC6, 
	0xC9, 0x26, 0x60, 0x32, 0xD5, 0xDC, 0xFF, 0x01, 0x03, 0x09, 0x03, 0xFF, 0x05, 0xF9, 0xF7, 0xFD, 
	0x02, 0xFD, 0x07, 0xFD, 0xF8, 0x04, 0xFD, 0x06, 0xFF, 0xF9, 0x01, 0x07, 0xFF, 0x02, 0xFB, 0xFB, 
	0xF6, 0x00, 0x05, 0x09, 0x0B, 0x08, 0xE2, 0xB5, 0xD9, 0x61, 0x7F, 0x22, 0xC1, 0xD8, 0xFE, 0xFF, 
	0x03, 0x0A, 0xFD, 0xFA, 0xFD, 0x03, 0x00, 0x04, 0x04, 0xFD, 0xFD, 0x06, 0xFC, 0x04, 0x06, 0xFA, 
	0xFF, 0xFC, 0x09, 0xFF, 0xFE, 0x07, 0xFC, 0x00, 0xFB, 0xFE, 0xFB, 0xFE, 0xFF, 0x00, 0xF2, 0xF1, 
	0x08, 0x18, 0x0B, 0x09, 0x0A, 0xFD, 0xF7, 0xF8, 0xFD, 0x00, 0xFC, 0x02, 0x04, 0x03, 0xFB, 0xFB, 
	0x03, 0x01, 0xFD, 0x05, 0x00, 0x00, 0x03, 0xF2, 0x01, 0x1B, 0xD2, 0x00, 0xE0, 0x47, 0x00, 0xE0, 
	0xCC, 0x20, 0x5A, 0xCC, 0xA5, 0x7F, 0xD2, 0xD5, 0x50, 0xD2, 0x0A, 0xFE, 0x05, 0x03, 0xFC, 0xFB, 
	0xFB, 0x01, 0x00, 0x13, 0xFF, 0xF4, 0x03, 0x0A, 0x05, 0x06, 0x01, 0xFC, 0xF4, 0xF9, 0xFE, 0x09, 
	0x02, 0x18, 0xDF, 0xFC, 0x06, 0x0A, 0x0E, 0xE1, 0xF1, 0x14, 0x0F, 0xE7, 0xEA, 0x29, 0xF2, 0xF9, 
	0x0B, 0xF8, 0x0A, 0xFD, 0x03, 0xFC, 0x07, 0x01, 0x05, 0xFC, 0xFF, 0xFD, 0x03, 0xFE, 0x00, 0xFD, 
	0x08, 0x04, 0x03, 0xFD, 0xFF, 0x01, 0x00, 0xFE, 0x02, 0x08, 0xE6, 0x03, 0xF9, 0x1C, 0xF5, 0xFF, 
	0x01, 0xFD, 0x07, 0x03, 0xFD, 0xF4, 0x14, 0xF2, 0x05, 0xFE, 0xFF, 0xFC, 0x03, 0xFD, 0x04, 0xFE, 
	0x01, 0xFF, 0xFF, 0x00, 0x05, 0xFC, 0x01, 0xFC, 0xFE, 0x05, 0xFE, 0x02, 0x06, 0xFF, 0x04, 0xFF, 
	0x03, 0xF5, 0xFE, 0x02, 0xFB, 0x00, 0xFE, 0x02, 0xF9, 0xFB, 0x00, 0xFC, 0x02, 0x04, 0x01, 0xFD, 
	0xFB, 0xF8, 0xF6, 0xF3, 0xF7, 0xFB, 0xF9, 0x00, 0xFC, 0x05, 0x03, 0x0B, 0x00, 0x07, 0xF3, 0x00, 
	0x09, 0x13, 0x1F, 0x25, 0x36, 0x3E, 0x42, 0x2B, 0x10, 0xF2, 0x0A, 0x04, 0x00, 0x0E, 0xFE, 0x01, 
	0xFF, 0xFF, 0x04, 0x02, 0x02, 0x05, 0x01, 0xF8, 0x01, 0xFF, 0x03, 0x07, 0x0B, 0x05, 0xFE, 0xFE, 
	0xFE, 0x06, 0x07, 0xFC, 0xFB, 0x05, 0x03, 0x10, 0xFE, 0xEC, 0xE1, 0xD3, 0xC7, 0xC1, 0xDB, 0x87, 
	0x0F, 0xFC, 0x09, 0x07, 0x13, 0x0D, 0x07, 0x05, 0x07, 0x04, 0xFD, 0x08, 0x05, 0x06, 0xFE, 0xFD, 
	0xFD, 0x01, 0x0C, 0x0C, 0x0A, 0x02, 0xFE, 0x00, 0xFC, 0xFB, 0xFF, 0x01, 0xF4, 0x04, 0xF8, 0x0B, 
	0xFE, 0x00, 0xFC, 0xFE, 0xFC, 0xDB, 0xF6, 0x81, 0xE8, 0x11, 0xCB, 0x94, 0xFD, 0x0B, 0x05, 0xFE, 
	0x1F, 0x08, 0xDC, 0xE0, 0xDE, 0x00, 0x11, 0x29, 0x12, 0x0B, 0x13, 0x0F, 0x20, 0x25, 0x1B, 0x1F, 
	0x25, 0x0E, 0x2F, 0x2C, 0x2C, 0x2B, 0x2C, 0xF8, 0x04, 0x02, 0xE0, 0xE6, 0xFB, 0x09, 0x08, 0xD6, 
	0xF2, 0xE5, 0xEA, 0xAB, 0xC7, 0xEF, 0x19, 0x07, 0x35, 0x0D, 0x12, 0x19, 0xF8, 0x05, 0xFB, 0xFE, 
	0x03, 0xFD, 0xEF, 0xEF, 0xFD, 0xFF, 0xF6, 0xE6, 0xDD, 0xCF, 0xDD, 0xC4, 0xD4, 0xDA, 0xFC, 0xE7, 
	0x09, 0x1B, 0x1F, 0x14, 0xFC, 0xF0, 0xEC, 0x7F, 0x16, 0xFD, 0xED, 0xAC, 0xD7, 0xFA, 0x05, 0xEE, 
	0x0C, 0xFC, 0x10, 0x15, 0x0E, 0x0C, 0x14, 0x14, 0x26, 0x15, 0x11, 0x05, 0x00, 0xFF, 0x0F, 0x05, 
	0x08, 0xF1, 0x00, 0xF2, 0xEE, 0xF4, 0xFE, 0xEA, 0xF1, 0xFB, 0x01, 0x06, 0x06, 0xF4, 0xF4, 0x37, 
	0x02, 0xFF, 0xFE, 0xFE, 0xFE, 0x02, 0xFE, 0xF7, 0xFB, 0xFD, 0xFF, 0x04, 0x06, 0x0B, 0x08, 0x01, 
	0xF3, 0xE3, 0xCC, 0xBD, 0x11, 0x7F, 0x33, 0xD8, 0xDF, 0xFD, 0xFE, 0x06, 0xFB, 0xF8, 0xF4, 0xFF, 
	0x0F, 0x0F, 0xFA, 0xFE, 0x0A, 0x07, 0x0B, 0xF7, 0xFC, 0xF7, 0xFE, 0x06, 0x04, 0x04, 0x09, 0x06, 
	0x01, 0x01, 0xFB, 0x01, 0x0A, 0x09, 0x00, 0xFB, 0xF6, 0xE2, 0xC7, 0xC0, 0x0F, 0x72, 0x55, 0xF0, 
	0xDE, 0xF3, 0x05, 0x17, 0x0C, 0xF6, 0xF6, 0xF8, 0x02, 0x0D, 0x08, 0xF4, 0xEF, 0xFF, 0x07, 0xF9, 
	0xFF, 0xFB, 0xFD, 0x08, 0x03, 0xFF, 0xFD, 0xFC, 0xFA, 0xFD, 0xFE, 0xFD, 0xFF, 0x02, 0xFD, 0xFF, 
	0xF7, 0xF3, 0xFC, 0x11, 0x18, 0x06, 0x01, 0x01, 0x04, 0x02, 0xF7, 0xFE, 0x02, 0xFB, 0xFF, 0xFC, 
	0xF5, 0x04, 0x09, 0x01, 0xFF, 0xF8, 0x08, 0x00, 0x01, 0xFF, 0x06, 0x02, 0xFF, 0x01, 0xFD, 0xFD, 
	0xFF, 0xFA, 0xFB, 0x00, 0xFA, 0xE6, 0xD9, 0xFA, 0x25, 0x26, 0xFD, 0xEE, 0x02, 0x03, 0x0D, 0x08, 
	0x07, 0xFC, 0xFC, 0x02, 0xFB, 0xFC, 0xF6, 0x05, 0x09, 0xFD, 0xFD, 0x01, 0x01, 0xFA, 0x03, 0x04, 
	0xFC, 0x00, 0x05, 0x06, 0x01, 0xFA, 0xFC, 0xF9, 0x00, 0x0C, 0x0E, 0x11, 0xF8, 0xD7, 0xD4, 0x26, 
	0x7F, 0x39, 0xCC, 0xC6, 0xFD, 0x0C, 0x03, 0xF5, 0xF8, 0xFE, 0x00, 0x01, 0xFC, 0x01, 0x00, 0x02, 
	0x01, 0xFB, 0x03, 0x04, 0x06, 0x02, 0x00, 0xF7, 0xFE, 0x05, 0x01, 0x03, 0xFE, 0xF8, 0xFC, 0xFA, 
	0xFE, 0x00, 0x01, 0x02, 0xF9, 0xF2, 0xF8, 0x10, 0x1D, 0x0C, 0xF8, 0xED, 0x02, 0x08, 0x00, 0xF7, 
	0xFA, 0xFF, 0x04, 0x02, 0xFD, 0xFD, 0xFF, 0xFD, 0x00, 0xFE, 0x03, 0x00, 0x04, 0xFD, 0x03, 0xF6, 
	0x03, 0xDA, 0x81, 0x1D, 0x5E, 0x24, 0xBC, 0xFE, 0x12, 0x07, 0x01, 0x12, 0xF2, 0xF3, 0x15, 0xEF, 
	0x0C, 0xF5, 0x00, 0xFA, 0x09, 0xFA, 0xFA, 0xF5, 0x03, 0x08, 0x05, 0x05, 0xFB, 0xF4, 0xF8, 0x00, 
	0x18, 0x14, 0xFC, 0xF5, 0xFE, 0xEB, 0x0B, 0x00, 0x1F, 0x06, 0xAC, 0xC5, 0x3B, 0x64, 0xB7, 0xDB, 
	0xF6, 0x46, 0xCA, 0x14, 0x05, 0xE5, 0x0D, 0xE9, 0x0F, 0xF9, 0x00, 0x00, 0xFE, 0x08, 0x01, 0x06, 
	0x06, 0xFE, 0xF0, 0xFB, 0x10, 0xFF, 0xFB, 0xFD, 0x07, 0x01, 0xF7, 0xFA, 0x09, 0xFF, 0x0C, 0xFE, 
	0x17, 0xFD, 0xBD, 0xA4, 0x3C, 0x58, 0x0D, 0xFF, 0xFD, 0xD0, 0x1F, 0x17, 0xFA, 0x0A, 0xFD, 0xFE, 
	0x06, 0xFC, 0x0C, 0x04, 0xFA, 0xFD, 0x03, 0x01, 0x01, 0xFC, 0xFB, 0x02, 0x08, 0xF9, 0x03, 0x07, 
	0x07, 0x00, 0xF9, 0x02, 0x09, 0xF7, 0x09, 0x06, 0xFD, 0x3C, 0x10, 0x58, 0x4A, 0x14, 0x25, 0x4B, 
	0x41, 0x67, 0x1E, 0x0E, 0x0C, 0x2A, 0x22, 0x0A, 0x1B, 0xF9, 0x26, 0x1D, 0x00, 0x0C, 0xFD, 0xEE, 
	0xF2, 0x1D, 0xEC, 0xCC, 0xD3, 0xC0, 0xFD, 0xE7, 0xDD, 0xE3, 0x03, 0xEA, 0xD4, 0x11, 0xC0, 0x0D, 
	0xF4, 0x29, 0xEE, 0x7F, 0x60, 0x33, 0x5E, 0x3B, 0x16, 0x1B, 0xDA, 0xDB, 0xD8, 0xED, 0xDA, 0xD4, 
	0xF8, 0xF8, 0x09, 0x10, 0x07, 0xFF, 0xE0, 0xCD, 0xE1, 0xE3, 0xE0, 0x01, 0xEC, 0xEC, 0xD5, 0x09, 
	0x09, 0x26, 0xEA, 0xF1, 0xB7, 0xE4, 0xC4, 0x27, 0xDA, 0xFA, 0xC0, 0xB1, 0xB3, 0x8B, 0xA9, 0xBB, 
	0xC8, 0xBD, 0xC5, 0xD5, 0xD0, 0xE8, 0xD8, 0xED, 0xDF, 0xED, 0xEE, 0xE6, 0x03, 0x00, 0x02, 0x17, 
	0x17, 0xE5, 0x09, 0x30, 0x33, 0x29, 0x32, 0x3D, 0xD5, 0x2E, 0x3A, 0x65, 0x3C, 0x3D, 0x40, 0x38, 
	0x23, 0x1D, 0x4C, 0x7F, 0x70, 0x7D, 0x6D, 0x3D, 0x2A, 0x1C, 0x30, 0x28, 0x2E, 0x2A, 0x38, 0x0D, 
	0xF7, 0xFD, 0xFB, 0x02, 0x03, 0x09, 0x03, 0xF8, 0xF1, 0x08, 0xE6, 0xE8, 0xF1, 0xFE, 0x14, 0x07, 
	0x05, 0x2A, 0x03, 0x15, 0x1D, 0xF2, 0x34, 0x07, 0xBD, 0xB8, 0xCA, 0xCE, 0xDD, 0xF9, 0xC1, 0xE3, 
	0xDB, 0xDE, 0xF1, 0xDE, 0xE2, 0xF5, 0xEA, 0xE9, 0x00, 0x09, 0x05, 0x03, 0xF9, 0x00, 0xFB, 0xFA, 
	0xEE, 0x07, 0xFE, 0x06, 0xF9, 0x05, 0x00, 0x01, 0xDD, 0xF3, 0x1D, 0x08, 0x03, 0xE8, 0x18, 0xED, 
	0xB8, 0xCF, 0xC8, 0xD4, 0xBC, 0xD7, 0xCA, 0xF5, 0xD7, 0xFB, 0x03, 0xFD, 0xEE, 0xF6, 0xF8, 0xFC, 
	0xFE, 0xFC, 0xFE, 0xFD, 0xFE, 0xF2, 0x1A, 0x08, 0x14, 0x05, 0xFE, 0xF5, 0x11, 0x04, 0xE6, 0xF2, 
	0x02, 0xE7, 0xEC, 0xF4, 0xF5, 0xF8, 0x3C, 0xCE, 0x06, 0x01, 0xF9, 0xEE, 0xF2, 0x07, 0x10, 0x24, 
	0x14, 0xF7, 0xDE, 0x0D, 0x5F, 0x73, 0xF2, 0x81, 0xCA, 0x0D, 0xFB, 0xF4, 0xFB, 0x00, 0x01, 0xF3, 
	0xFF, 0xF9, 0xF5, 0x01, 0x0A, 0xFF, 0x00, 0xFF, 0xFE, 0xFB, 0xF8, 0xFA, 0x02, 0x08, 0xF6, 0x0E, 
	0x01, 0x08, 0xFF, 0xF5, 0xF9, 0xFE, 0x02, 0x03, 0x0B, 0x08, 0xF5, 0xEB, 0xF9, 0x1F, 0x30, 0x00, 
	0xE8, 0xFD, 0xF9, 0xF8, 0xFB, 0xFD, 0x06, 0x05, 0xFB, 0xFE, 0x01, 0x00, 0x00, 0x04, 0x02, 0xFB, 
	0x00, 0x03, 0x01, 0xFE, 0x05, 0x02, 0xFE, 0xFF, 0xF9, 0x09, 0x01, 0xFF, 0xF8, 0x01, 0xFF, 0x01, 
	0xFD, 0xFA, 0xFF, 0xFB, 0xF2, 0xF7, 0x0A, 0x0B, 0x05, 0x08, 0x06, 0xFD, 0xFA, 0xFE, 0x03, 0x04, 
	0x02, 0x06, 0x00, 0xFD, 0x00, 0x01, 0xFD, 0x02, 0x01, 0x02, 0x06, 0xFD, 0xFD, 0x00, 0xFC, 0x06, 
	0x97, 0xDA, 0xAD, 0xDB, 0xA9, 0x8A, 0x8F, 0x96, 0xBC, 0xA0, 0xC1, 0xBF, 0xD1, 0xD7, 0xDC, 0xF6, 
	0x0B, 0x08, 0x07, 0x0B, 0x0D, 0x04, 0xE0, 0xEA, 0xEE, 0x03, 0x1F, 0xF8, 0x02, 0x0D, 0x47, 0x2A, 
	0x27, 0x3E, 0x71, 0x48, 0x54, 0x25, 0x42, 0x9B, 0xDA, 0x7F, 0x44, 0x4A, 0x7D, 0x4F, 0x79, 0x3E, 
	0x19, 0x1D, 0x3B, 0x20, 0x1E, 0x13, 0x19, 0x01, 0x06, 0xFF, 0xFF, 0x03, 0x0E, 0x0B, 0x02, 0xF1, 
	0xF2, 0x02, 0xF8, 0x05, 0xFF, 0xD0, 0xC6, 0xDE, 0xD5, 0xB2, 0xD3, 0xDF, 0xE1, 0xE8, 0xCD, 0x2A, 
	0x1C, 0x2D, 0xEA, 0x75, 0x04, 0x03, 0x1F, 0x04, 0xFD, 0x18, 0xFE, 0x14, 0x08, 0xFC, 0x06, 0x07, 
	0xFC, 0xF8, 0x02, 0xF6, 0x00, 0xFF, 0xF3, 0x05, 0x0B, 0xFA, 0xF9, 0xFE, 0x04, 0xE4, 0xEE, 0x06, 
	0x0C, 0x02, 0xEE, 0xFF, 0xE7, 0xFB, 0xF1, 0x62, 0x07, 0xED, 0xFE, 0x1C, 0x26, 0x2D, 0x0E, 0xF6, 
	0xF4, 0xE7, 0x05, 0x08, 0xFA, 0xF1, 0xFE, 0x00, 0x06, 0xE2, 0xDF, 0xF6, 0x02, 0xFC, 0xF7, 0xF7, 
	0xF9, 0xF9, 0x0A, 0xF8, 0x0B, 0xFA, 0x00, 0x14, 0x0F, 0xF6, 0xF6, 0x0F, 0xF8, 0x20, 0xE9, 0xE7, 
	0x47, 0xE2, 0x03, 0x14, 0x43, 0x59, 0x64, 0x61, 0x48, 0x06, 0xDA, 0xF9, 0x18, 0x1D, 0x13, 0x01, 
	0x0C, 0x0E, 0x04, 0x11, 0x0C, 0x18, 0x23, 0x00, 0xF3, 0x01, 0x04, 0xF3, 0xFB, 0xF7, 0xF0, 0x05, 
	0xFA, 0xFF, 0xFF, 0x07, 0xEE, 0xF8, 0xA8, 0x7F, 0x18, 0xE3, 0x22, 0x00, 0x01, 0xF6, 0xFA, 0xFD, 
	0x11, 0x14, 0x1B, 0x09, 0x00, 0xFB, 0xEF, 0xF7, 0xEC, 0xF0, 0xEA, 0xEC, 0xFA, 0xF6, 0xF6, 0x03, 
	0x07, 0x05, 0x0F, 0xFE, 0xFD, 0xFE, 0x00, 0x15, 0x03, 0x01, 0xFE, 0x0C, 0xEC, 0x0A, 0xDB, 0x1E, 
	0xF9, 0x05, 0xFB, 0x03, 0x01, 0xFB, 0x00, 0xFA, 0xFC, 0xFD, 0xFD, 0xF3, 0xE5, 0xF5, 0x16, 0x34, 
	0x0E, 0xE3, 0xEF, 0x04, 0x04, 0x0D, 0x03, 0xFB, 0xFC, 0xFE, 0xFB, 0xFD, 0xFB, 0x09, 0xFD, 0x02, 
	0xFB, 0x03, 0xFE, 0x02, 0x05, 0xF9, 0xFC, 0x06, 0xFD, 0x0C, 0x06, 0x00, 0xFE, 0xFD, 0xFD, 0xFF, 
	0x07, 0x07, 0x06, 0xEA, 0xDB, 0x0D, 0x7F, 0x74, 0xD9, 0xA1, 0xDC, 0xFD, 0x02, 0x06, 0x08, 0x01, 
	0x05, 0xFD, 0xFB, 0xFD, 0xFC, 0x06, 0xFB, 0x00, 0xFC, 0x05, 0xFD, 0x05, 0x04, 0x01, 0xFC, 0xFB, 
	0x00, 0x08, 0x01, 0xF9, 0xFC, 0xF6, 0xF9, 0xFF, 0x02, 0x02, 0xFF, 0xFE, 0xFB, 0xFF, 0x0E, 0x12, 
	0x00, 0xF2, 0xFC, 0x06, 0xFF, 0xFD, 0xF9, 0xFD, 0x01, 0x00, 0x03, 0xFF, 0x00, 0xFE, 0xFE, 0xFF, 
	0xFF, 0x01, 0xFB, 0x00, 0x00, 0x03, 0x00, 0x01, 0x0A, 0xC3, 0x65, 0xDD, 0xB5, 0x7F, 0xD7, 0x06, 
	0x01, 0xF3, 0x15, 0xFF, 0xFC, 0xFF, 0x06, 0xFF, 0x00, 0x01, 0x03, 0xFE, 0x02, 0xFF, 0x00, 0x01, 
	0x01, 0x02, 0x02, 0xFD, 0x01, 0x02, 0x01, 0xFE, 0xFE, 0xFE, 0xFD, 0xFF, 0x02, 0x00, 0xFE, 0x01, 
	0x0A, 0xEE, 0x23, 0xBA, 0x13, 0x21, 0xD1, 0x21, 0xEF, 0x06, 0x05, 0xF6, 0x05, 0xFF, 0xFF, 0x00, 
	0x00, 0x00, 0x00, 0x00, 0xFF, 0x01, 0x01, 0x00, 0xFF, 0x01, 0x01, 0x00, 0x01, 0xFF, 0x00, 0x00, 
	0x00, 0x00, 0xFF, 0x01, 0xFF, 0xFE, 0x00, 0xFF, 0xFE, 0x08, 0x09, 0xE7, 0x14, 0xF8, 0xF9, 0x04, 
	0xFC, 0x02, 0xFE, 0x00, 0xFF, 0xFF, 0xFE, 0xFE, 0x01, 0x00, 0xFE, 0x00, 0xFE, 0x00, 0x01, 0xFF, 
	0xFF, 0x00, 0x01, 0xFF, 0x00, 0x00, 0x00, 0x01, 0x01, 0x00, 0x00, 0x01, 0x01, 0x00, 0x00, 0x00, 
	0x03, 0xFB, 0x0F, 0xFA, 0xDC, 0x03, 0x00, 0x05, 0xFB, 0x01, 0x00, 0xFF, 0x00, 0x01, 0xFF, 0xFF, 
	0x00, 0x00, 0x00, 0x00, 0x00, 0x00, 0x00, 0xFF, 0x00, 0xFF, 0xFE, 0x00, 0x00, 0x00, 0x00, 0x00, 
	0x01, 0x00, 0x00, 0x01, 0x01, 0x01, 0x00, 0x01, 0xFA, 0x08, 0xF1, 0xE5, 0x7F, 0xDB, 0x04, 0xF6, 
	0x0B, 0x00, 0xFD, 0x03, 0x02, 0x00, 0x00, 0x02, 0x00, 0x01, 0x00, 0x01, 0xFF, 0x00, 0xFF, 0x00, 
	0x01, 0x01, 0x01, 0x01, 0x01, 0x01, 0xFF, 0xFE, 0x00, 0x00, 0xFF, 0xFF, 0x00, 0x00, 0xFD, 0x00, 
	0xFD, 0x05, 0x00, 0xFA, 0xF8, 0xFC, 0x03, 0xFD, 0x00, 0x00, 0x00, 0xFE, 0xFF, 0xFF, 0xFF, 0x00, 
	0xFF, 0x00, 0xFF, 0x00, 0x00, 0x01, 0x00, 0x01, 0xFF, 0x00, 0xFF, 0xFF, 0x00, 0x01, 0xFF, 0x00, 
	0x01, 0xFF, 0x00, 0xFF, 0x00, 0x01, 0xFF, 0xFF, 0x04, 0xF7, 0x02, 0xF9, 0xFF, 0x00, 0xFB, 0xFD, 
	0xFF, 0xFC, 0x01, 0x02, 0x05, 0x04, 0x03, 0x0B, 0x07, 0x03, 0xFC, 0xFA, 0xFF, 0xFF, 0x00, 0x00, 
	0xF7, 0xF3, 0xF9, 0x02, 0x0A, 0x07, 0x10, 0x17, 0x1C, 0x22, 0x20, 0x1D, 0x22, 0x32, 0x30, 0x75, 
	0x04, 0xF6, 0x03, 0x02, 0x03, 0x0E, 0x0C, 0x04, 0x00, 0x03, 0x00, 0x00, 0xF9, 0xF9, 0xFB, 0xF6, 
	0xF7, 0xFA, 0x00, 0x05, 0x00, 0xFA, 0xF5, 0xFE, 0x0E, 0x11, 0x02, 0xFB, 0xF0, 0xE2, 0xDF, 0xD1, 
	0xD1, 0xCF, 0xD4, 0xD9, 0xDB, 0xD3, 0xBF, 0x81, 0x01, 0xF3, 0xFE, 0x00, 0x03, 0x07, 0x01, 0x01, 
	0xFC, 0xFA, 0xFF, 0xFA, 0xFF, 0x00, 0xFF, 0x05, 0x07, 0x00, 0xFD, 0xFC, 0x04, 0x03, 0x0B, 0x05, 
	0x02, 0x09, 0x02, 0x0C, 0x0B, 0x0A, 0x10, 0x0F, 0x1A, 0x11, 0x12, 0xFB, 0x01, 0x12, 0x0A, 0xFF, 
	0xFD, 0x01, 0xFD, 0x02, 0x02, 0x01, 0xFC, 0xF9, 0xF6, 0xF4, 0xFC, 0xFE, 0x00, 0x03, 0x05, 0xFC, 
	0xD6, 0xDE, 0x2D, 0x69, 0x32, 0xCF, 0xC7, 0xF3, 0x0E, 0x09, 0xFA, 0xFE, 0xF7, 0x03, 0x07, 0x0B, 
	0xF7, 0xF4, 0xFC, 0x11, 0xF9, 0xF8, 0x0C, 0xFB, 0xFC, 0xFF, 0x01, 0x09, 0x01, 0x06, 0x00, 0x02, 
	0xFD, 0xFC, 0x04, 0x02, 0x05, 0x02, 0x0D, 0x06, 0xD6, 0xA6, 0xD8, 0x59, 0x7F, 0x0C, 0xCC, 0xE5, 
	0x0F, 0x1B, 0x05, 0xFC, 0xF4, 0x00, 0x00, 0x00, 0xFF, 0x00, 0xFD, 0x03, 0x04, 0xF4, 0x10, 0xF3, 
	0xFD, 0x02, 0x03, 0xFC, 0x06, 0x05, 0x03, 0x01, 0x00, 0xFE, 0xFD, 0xFE, 0xFA, 0xFD, 0x00, 0xFA, 
	0xE9, 0xE3, 0xF9, 0x11, 0x0F, 0x17, 0x0E, 0xF7, 0xF6, 0x05, 0x05, 0x04, 0xFC, 0xFF, 0xFF, 0xFE, 
	0x02, 0x03, 0xF8, 0x00, 0x08, 0xF8, 0x07, 0xFB, 0xD2, 0x1B, 0xDA, 0xAB, 0x00, 0x11, 0x13, 0x16, 
	0x1A, 0x18, 0x00, 0x07, 0xFA, 0x13, 0x10, 0x22, 0x10, 0x02, 0xFF, 0xFE, 0x09, 0x03, 0x00, 0xE8, 
	0xED, 0xDF, 0xEB, 0xE4, 0xEC, 0xFC, 0x0D, 0x03, 0x0C, 0x2E, 0x16, 0x1D, 0xFD, 0xFA, 0xFF, 0x37, 
	0x15, 0xD6, 0x0A, 0xB7, 0x08, 0x01, 0x03, 0xF0, 0x1A, 0x05, 0xF8, 0xF4, 0xF3, 0x00, 0x06, 0x1D, 
	0x14, 0x09, 0x06, 0x08, 0x0C, 0x13, 0x17, 0x1C, 0x1B, 0x11, 0x20, 0x1C, 0x1E, 0x0C, 0x0E, 0xF5, 
	0xEF, 0xF1, 0xE2, 0xEC, 0xFF, 0x0E, 0x01, 0xFB, 0x69, 0x81, 0x40, 0xC7, 0xC7, 0xE2, 0xFD, 0xE4, 
	0x08, 0xE3, 0x08, 0x13, 0xEF, 0xEE, 0xF6, 0xE0, 0xFE, 0x0C, 0xFF, 0xFA, 0xFD, 0x07, 0x08, 0x08, 
	0xFD, 0x00, 0xFF, 0xF2, 0xFA, 0xF2, 0xF3, 0xE7, 0xE7, 0xF3, 0xF0, 0xF5, 0xFA, 0xF0, 0xF4, 0x1C, 
	0x06, 0x03, 0xFA, 0x05, 0x05, 0xFB, 0xFB, 0xF7, 0xFC, 0xFE, 0xFF, 0x00, 0xFE, 0xFF, 0x04, 0x05, 
	0x02, 0x03, 0xFE, 0x05, 0xFD, 0xFF, 0x06, 0x04, 0xFF, 0xFA, 0xF3, 0xE2, 0x01, 0x03, 0xFC, 0xA6, 
	0xD4, 0xFF, 0xE2, 0x17, 0x23, 0x27, 0x1C, 0x2E, 0x04, 0x04, 0xFA, 0xF6, 0x06, 0x01, 0x00, 0x05, 
	0x01, 0x03, 0x05, 0x03, 0xFD, 0xFB, 0xF8, 0xFA, 0xF6, 0xFC, 0x01, 0x07, 0x06, 0xFA, 0xFF, 0x09, 
	0x0C, 0xF3, 0xCE, 0x00, 0x39, 0xDE, 0xA9, 0xCD, 0x7F, 0x27, 0xF4, 0x08, 0x22, 0x1C, 0xEF, 0xF2, 
	0x07, 0xEB, 0xF5, 0x08, 0x0A, 0xFA, 0x00, 0xFE, 0x01, 0x07, 0x05, 0x02, 0x02, 0xFE, 0xFB, 0xFB, 
	0xF7, 0xFB, 0x04, 0x0A, 0x06, 0x02, 0xF4, 0xF1, 0xF3, 0xFF, 0x09, 0x20, 0x22, 0xE8, 0xFB, 0x3A, 
	0x2E, 0xED, 0x00, 0xFA, 0xE9, 0xDF, 0xED, 0xF9, 0xB5, 0xE5, 0x1A, 0xFE, 0x44, 0x27, 0x14, 0x03, 
	0xFC, 0x1F, 0x04, 0x0D, 0x12, 0x0E, 0xEF, 0xE0, 0xF0, 0xF8, 0x11, 0x09, 0xFF, 0xFE, 0xF4, 0xF2, 
	0xF6, 0xF9, 0x08, 0xFA, 0xF2, 0xD9, 0x04, 0xEC, 0xE7, 0x05, 0xFA, 0x16, 0xFF, 0x24, 0xDE, 0x1B, 
	0xA7, 0xD0, 0xC8, 0x1C, 0x60, 0x44, 0x7F, 0x44, 0x32, 0x3D, 0x33, 0x38, 0x24, 0x04, 0x0F, 0x1B, 
	0x11, 0xFF, 0x0F, 0xFF, 0x01, 0xF9, 0x00, 0x12, 0x02, 0x06, 0x0B, 0xF5, 0xFF, 0x1C, 0x0E, 0xF8, 
	0xF6, 0xEF, 0xE4, 0xF2, 0xF6, 0xFF, 0xE7, 0xFA, 0xC4, 0xFC, 0xD0, 0x07, 0x18, 0xF1, 0x06, 0xEE, 
	0x22, 0xFD, 0x08, 0xEE, 0xEE, 0xE9, 0xFB, 0xF8, 0xF6, 0xFE, 0x00, 0xF9, 0xF6, 0xF6, 0xE9, 0xFA, 
	0x00, 0x0A, 0x10, 0xF1, 0xFB, 0x0A, 0x11, 0xF8, 0x05, 0x0C, 0xFA, 0xFE, 0x01, 0xF3, 0xEB, 0x19, 
	0x0D, 0xF9, 0xED, 0x0C, 0x05, 0x0B, 0x02, 0x04, 0xFC, 0xFD, 0xF2, 0xEE, 0xEC, 0xE3, 0xE0, 0xE0, 
	0xE0, 0xCE, 0xC8, 0xAF, 0xB9, 0x03, 0x5C, 0x7F, 0x6B, 0x6D, 0x51, 0x11, 0xED, 0x01, 0xFB, 0x0E, 
	0x02, 0xFB, 0xFB, 0x06, 0xF8, 0xD6, 0xF0, 0x08, 0x10, 0x04, 0x0D, 0x00, 0xFB, 0xF6, 0xF9, 0xF9, 
	0xFC, 0xFC, 0xFE, 0xF6, 0xEE, 0xE3, 0xE9, 0xEE, 0xFC, 0xF0, 0xEC, 0xEB, 0x03, 0x13, 0x32, 0x49, 
	0x32, 0x24, 0x1F, 0xE3, 0xD0, 0xFD, 0x0B, 0x12, 0xFE, 0x00, 0xF3, 0xF0, 0xEC, 0xE1, 0xF8, 0x21, 
	0x14, 0xFE, 0xF9, 0xF5, 0xF8, 0xF9, 0xF0, 0xFD, 0xFB, 0xF8, 0x02, 0x01, 0x07, 0x04, 0x04, 0x09, 
	0x00, 0x08, 0xFF, 0x15, 0x21, 0x06, 0xF1, 0xF5, 0xEE, 0xD7, 0xF1, 0xF7, 0xF4, 0xF5, 0xFC, 0xFB, 
	0xEF, 0x02, 0xFE, 0xFB, 0x07, 0x02, 0x0F, 0x07, 0x01, 0x05, 0x00, 0x03, 0xFD, 0xFE, 0xFB, 0xFF, 
	0x02, 0x07, 0xFA, 0xF6, 0xEE, 0xE5, 0xDD, 0x1A, 0x7B, 0x7F, 0x26, 0xD4, 0xB9, 0xDA, 0xEC, 0xF8, 
	0x05, 0xF9, 0xF4, 0xF4, 0xF3, 0x0A, 0x14, 0xFF, 0xF4, 0x00, 0x0A, 0x09, 0x01, 0x04, 0xFD, 0xF9, 
	0x06, 0x02, 0x07, 0xFF, 0xFC, 0xFA, 0xF6, 0xF8, 0xFA, 0xFF, 0xFF, 0xFE, 0x00, 0x09, 0x14, 0x10, 
	0xF1, 0xF6, 0x1A, 0x25, 0x02, 0xE3, 0xEE, 0x07, 0x15, 0x06, 0xFA, 0x04, 0x05, 0xFB, 0xF6, 0xF5, 
	0xFB, 0xFC, 0xFE, 0x02, 0xFE, 0x00, 0xF6, 0x06, 0x05, 0xFF, 0x00, 0xFF, 0xFB, 0xFC, 0x00, 0x00, 
	0x01, 0xFF, 0x00, 0xFF, 0xFF, 0xFC, 0xFC, 0xFB, 0xF0, 0xED, 0xF7, 0x07, 0x0B, 0x03, 0xFB, 0xFF, 
	0x06, 0xFE, 0xF5, 0x03, 0x02, 0xFE, 0x00, 0x03, 0x07, 0x00, 0xFA, 0xFC, 0x02, 0x01, 0xFB, 0x01, 
	0xF6, 0x0C, 0x07, 0x07, 0x0D, 0xF6, 0xF7, 0xFC, 0xF8, 0xFE, 0x00, 0x02, 0x04, 0x14, 0x17, 0xF8, 
	0xEF, 0x09, 0x31, 0x39, 0x11, 0xDA, 0xA9, 0x9C, 0xB4, 0xF0, 0x05, 0xCF, 0xD5, 0x1E, 0x45, 0x1D, 
	0xF4, 0xFC, 0x14, 0xFD, 0xEF, 0x0C, 0x0B, 0x06, 0x03, 0xF3, 0xF9, 0xF7, 0x04, 0x04, 0x0E, 0xFD, 
	0xF2, 0xF6, 0xFB, 0xF2, 0xE2, 0xD6, 0xDF, 0xFA, 0x02, 0xEC, 0xC7, 0xC2, 0xFE, 0x54, 0x7F, 0x6C, 
	0x5E, 0x65, 0x65, 0x13, 0xD2, 0xD2, 0xE9, 0xE2, 0xD4, 0xEF, 0x01, 0xF7, 0xF1, 0xF0, 0xF2, 0x1B, 
	0x06, 0xFF, 0xFE, 0x0A, 0x06, 0x03, 0x06, 0x02, 0x04, 0xFD, 0x02, 0x03, 0x08, 0x0C, 0x0D, 0x0B, 
	0x05, 0x0A, 0x0E, 0x09, 0xF2, 0xE3, 0xED, 0xF8, 0xE5, 0xD1, 0xDD, 0xFF, 0x12, 0x15, 0x08, 0x12, 
	0x17, 0x0B, 0x00, 0xFE, 0x03, 0xFB, 0x07, 0xF7, 0xFD, 0xFD, 0x01, 0xFF, 0xFE, 0x02, 0xFF, 0x02, 
	0xFD, 0xFD, 0xF8, 0xFB, 0xFF, 0xFC, 0x02, 0x03, 0x05, 0x04, 0x00, 0xF6, 0xF2, 0xFD, 0x18, 0x19, 
	0x00, 0xE7, 0x02, 0xFD, 0xFF, 0x04, 0x0C, 0x09, 0xF6, 0xFB, 0xF9, 0xFE, 0xFD, 0xFE, 0x02, 0x0A, 
	0x00, 0x03, 0x01, 0x03, 0xFD, 0xFF, 0x03, 0x02, 0x05, 0x04, 0xF7, 0xF6, 0xFC, 0x0A, 0x09, 0x06, 
	0x0A, 0x03, 0x01, 0xFC, 0xF7, 0xF3, 0x2A, 0x76, 0xF4, 0x81, 0xD5, 0x0E, 0x0E, 0xF1, 0xF3, 0xF5, 
	0x04, 0x04, 0xF1, 0x17, 0x0C, 0x06, 0xFD, 0xEF, 0x00, 0x0C, 0x02, 0xF7, 0xF7, 0xFF, 0x01, 0x03, 
	0x07, 0x04, 0x02, 0xF8, 0xFD, 0xFE, 0x03, 0xFC, 0xFB, 0xFE, 0x01, 0x01, 0x00, 0x08, 0x23, 0x37, 
	0x09, 0xC7, 0xE6, 0x04, 0x0F, 0x04, 0xF4, 0xE6, 0xFE, 0x15, 0xF3, 0xFF, 0x02, 0xFF, 0x0A, 0xF2, 
	0xCD, 0xED, 0x7F, 0xE8, 0xF0, 0x0D, 0xF2, 0x11, 0xFA, 0x09, 0xFB, 0x00, 0x02, 0xFF, 0x00, 0x02, 
	0xFF, 0x01, 0x00, 0x02, 0xFE, 0xFF, 0x00, 0x03, 0x02, 0x01, 0x01, 0xFE, 0xFD, 0x01, 0x00, 0xFE, 
	0xFE, 0x00, 0xFD, 0x01, 0x02, 0x02, 0x02, 0xFE, 0xDC, 0x23, 0xEC, 0xF8, 0x08, 0xFC, 0x05, 0xFD, 
	0x01, 0xFB, 0x02, 0xFE, 0x00, 0xFE, 0x01, 0xFF, 0xFF, 0x00, 0xFF, 0x00, 0xFF, 0x00, 0x00, 0xFF, 
	0x00, 0xFD, 0x00, 0x01, 0x02, 0x00, 0x01, 0x01, 0x02, 0x02, 0x01, 0x01, 0xFD, 0xFF, 0x01, 0x02, 
	0xFB, 0x18, 0xF2, 0x0B, 0xF3, 0xFE, 0xFD, 0x01, 0xFD, 0xFF, 0x00, 0x00, 0xFE, 0x02, 0xFF, 0x02, 
	0x00, 0xFF, 0x00, 0x01, 0xFF, 0xFF, 0x01, 0xFF, 0x00, 0xFE, 0x00, 0x00, 0x00, 0xFF, 0x02, 0x00, 
	0x00, 0xFE, 0x00, 0x02, 0x01, 0xFF, 0x00, 0xFE, 0x02, 0xD9, 0xCC, 0xBB, 0xB4, 0xC6, 0xBB, 0xCF, 
	0xDB, 0x03, 0x05, 0xFF, 0x04, 0x0B, 0x08, 0xFF, 0x0C, 0xFD, 0xFE, 0xF7, 0xEE, 0x01, 0x16, 0x18, 
	0x12, 0x03, 0x07, 0xF8, 0x18, 0x37, 0x17, 0x06, 0xFE, 0x1C, 0x1B, 0x15, 0x1E, 0x0C, 0xF0, 0xF5, 
	0x0D, 0xCD, 0xD7, 0xE8, 0xDE, 0xF3, 0x0D, 0x20, 0x45, 0x68, 0x46, 0x38, 0x28, 0x2E, 0x39, 0x26, 
	0x27, 0x16, 0x1E, 0xFC, 0x0D, 0x09, 0x0A, 0x03, 0xFC, 0x09, 0x19, 0x26, 0xF4, 0xE7, 0xD8, 0xCF, 
	0xE1, 0x20, 0x0C, 0xF6, 0xEC, 0xF8, 0xE7, 0xF8, 0xFC, 0x2F, 0x33, 0x52, 0x7F, 0x66, 0x79, 0x47, 
	0x27, 0xDA, 0xD2, 0xCA, 0xD3, 0xA9, 0xB5, 0xB2, 0xCC, 0xE8, 0xFE, 0x17, 0x16, 0x0A, 0x04, 0xEE, 
	0xD6, 0xD9, 0xD2, 0x08, 0xD7, 0xD5, 0xFA, 0x0F, 0xF5, 0xF3, 0xEC, 0xCE, 0xD5, 0x07, 0xFD, 0x1F, 
	0xFC, 0xF6, 0x01, 0x28, 0x5A, 0x6A, 0x39, 0xED, 0xC4, 0x81, 0x92, 0xB2, 0xD5, 0xCC, 0xD2, 0xDE, 
	0xF5, 0x00, 0xEF, 0xF7, 0xF8, 0x04, 0xFC, 0x0E, 0x1D, 0x16, 0x04, 0xFC, 0xF3, 0xFB, 0xF7, 0xF5, 
	0x07, 0xFA, 0x14, 0x20, 0x1A, 0x2A, 0xDF, 0x04, 0xF7, 0xF2, 0xEE, 0x21, 0x22, 0x34, 0x28, 0x0C, 
	0xEE, 0xC7, 0xC4, 0xC7, 0xE0, 0xEB, 0xFC, 0xFE, 0x07, 0x1A, 0x0F, 0x1C, 0x02, 0x0F, 0xF4, 0xF5, 
	0xFA, 0xFD, 0x06, 0xFD, 0x06, 0x0B, 0xF7, 0x10, 0x24, 0x0B, 0xFE, 0xFD, 0xFA, 0xFB, 0x14, 0xFC, 
	0x0A, 0xFF, 0xFE, 0xF9, 0x05, 0x08, 0x14, 0x25, 0x25, 0x17, 0x10, 0x1B, 0x22, 0x26, 0x15, 0x03, 
	0xFD, 0x09, 0xFD, 0xE9, 0xE3, 0xF1, 0xF9, 0xF9, 0xFB, 0x14, 0x1E, 0x0A, 0x09, 0x17, 0x05, 0x15, 
	0x0F, 0xF4, 0xF5, 0xF7, 0xF1, 0xFB, 0x06, 0xFD, 0x04, 0x03, 0xFA, 0xFD, 0xF9, 0xF9, 0xF4, 0xFE, 
	0xFC, 0xF8, 0xF5, 0xFF, 0x07, 0x18, 0x14, 0xFA, 0xE7, 0xF1, 0x06, 0x0F, 0x0B, 0xFE, 0xF3, 0xFB, 
	0x11, 0x27, 0x16, 0xF3, 0xFB, 0x16, 0x1C, 0x00, 0xDB, 0xE2, 0xF7, 0xE1, 0xD1, 0xDB, 0xD4, 0xF9, 
	0x03, 0xFF, 0xFF, 0x0C, 0xFD, 0x0A, 0x08, 0xF3, 0xF5, 0x0A, 0x1A, 0x12, 0xF5, 0xDE, 0xE8, 0x09, 
	0x17, 0x0C, 0xF7, 0xF1, 0xF7, 0x06, 0x11, 0xFB, 0xDB, 0xCB, 0xE1, 0x02, 0xFB, 0xE1, 0xE9, 0x18, 
	0x51, 0x47, 0x49, 0x4B, 0x68, 0x79, 0x46, 0x7F, 0xFB, 0x05, 0x00, 0xFD, 0xF6, 0xF1, 0x02, 0x07, 
	0xFF, 0xF9, 0xF6, 0xF6, 0xF9, 0x03, 0x05, 0x02, 0x02, 0x07, 0x07, 0x01, 0xF6, 0xFA, 0x0B, 0x02, 
	0x02, 0x16, 0x10, 0x17, 0x13, 0xF2, 0xE6, 0xEC, 0xF9, 0xE0, 0xD9, 0xC5, 0xCD, 0xCA, 0xC6, 0x9D, 
	0x13, 0x17, 0x09, 0x0A, 0x00, 0xF6, 0x03, 0x21, 0x06, 0x07, 0xF7, 0x0A, 0x07, 0x0C, 0x0A, 0x05, 
	0x00, 0x01, 0x18, 0x16, 0x12, 0xF4, 0xE1, 0xE0, 0xD6, 0xC2, 0xC8, 0xE2, 0xE4, 0xC7, 0xAF, 0xD2, 
	0xD9, 0xE6, 0xEE, 0x0C, 0xF2, 0xF8, 0xEC, 0xFF, 0x1A, 0xFC, 0x09, 0xFA, 0x0A, 0x16, 0xFA, 0x07, 
	0xFE, 0xE3, 0xDF, 0xE9, 0xF5, 0xF9, 0xEB, 0xE9, 0xFF, 0x03, 0xFA, 0xF2, 0xF0, 0xF8, 0xE1, 0xC7, 
	0xCC, 0xCE, 0xD0, 0xCB, 0xC4, 0xD6, 0xF8, 0x14, 0xF2, 0x0B, 0x19, 0x28, 0x15, 0x1F, 0x11, 0x21, 
	0x19, 0xCE, 0x0F, 0xF6, 0x04, 0x08, 0xFC, 0xF3, 0xF7, 0x13, 0x13, 0x08, 0x05, 0x02, 0xFB, 0x02, 
	0x07, 0xFC, 0xEF, 0xF1, 0x01, 0x25, 0x3A, 0x3C, 0x68, 0x7F, 0x71, 0x5F, 0x4C, 0x4E, 0x53, 0x45, 
	0x1C, 0xEF, 0xFB, 0xF4, 0xEA, 0xEF, 0xE1, 0xDD, 0xD9, 0x13, 0x24, 0x31, 0x52, 0x5F, 0x59, 0x7F, 
	0x39, 0x58, 0x1F, 0x43, 0x33, 0x1E, 0x0C, 0xF8, 0x00, 0x05, 0x08, 0x06, 0x03, 0x10, 0x1D, 0x1D, 
	0xFA, 0xFF, 0x06, 0x10, 0x19, 0xEF, 0x0B, 0xF9, 0xE0, 0xFE, 0x02, 0x14, 0xF0, 0xF8, 0xF3, 0x1F, 
	0xFB, 0x03, 0x21, 0x3D, 0x0E, 0x12, 0x02, 0xFB, 0xE8, 0xDF, 0xDE, 0xFA, 0xFC, 0xFB, 0xED, 0xF0, 
	0xF8, 0xF6, 0x09, 0xF8, 0x01, 0xF9, 0xEF, 0xF3, 0xF7, 0xFA, 0xEA, 0xE1, 0xD7, 0xE8, 0x09, 0xE9, 
	0xE1, 0xF4, 0xFF, 0x19, 0x1A, 0xFA, 0xF2, 0x02, 0x04, 0xE9, 0xCD, 0x03, 0xD8, 0xC6, 0xCC, 0xBE, 
	0xC8, 0xD0, 0xF5, 0xFD, 0xF9, 0xF5, 0xFF, 0xFF, 0xFC, 0xF3, 0xF4, 0xF5, 0x0E, 0x02, 0xF5, 0xF6, 
	0xEE, 0xF6, 0x04, 0x04, 0x03, 0xF0, 0x04, 0xF2, 0x00, 0x12, 0xF4, 0xEA, 0x03, 0xFE, 0x1A, 0x11, 
	0xF9, 0x21, 0x20, 0xFA, 0x02, 0x18, 0x09, 0x18, 0x02, 0x15, 0xF9, 0x08, 0x0E, 0x0F, 0xFF, 0xF6, 
	0x04, 0xFD, 0x00, 0x05, 0xFF, 0x14, 0x16, 0xF7, 0x08, 0x20, 0x16, 0x13, 0xF0, 0xEF, 0x03, 0x4D, 
	0x45, 0x16, 0x60, 0x61, 0x52, 0x4A, 0xF2, 0x81, 0xF5, 0x06, 0xF3, 0x01, 0xF9, 0x03, 0x05, 0x0C, 
	0x07, 0x0C, 0xF4, 0xF8, 0x0B, 0x14, 0x06, 0xF7, 0xFB, 0x04, 0x0A, 0x13, 0x01, 0xFA, 0x04, 0xFC, 
	0x09, 0x1E, 0x0F, 0xFC, 0xE6, 0xE9, 0xD7, 0xF6, 0xCF, 0xD6, 0x20, 0x36, 0x01, 0xF9, 0xE6, 0xE4, 
	0xE2, 0x12, 0xFA, 0xDE, 0xE1, 0xDB, 0xD6, 0xE2, 0xEF, 0x05, 0xF9, 0x01, 0xFB, 0x0F, 0xFF, 0xF3, 
	0xF2, 0xFE, 0xFB, 0xF5, 0xF3, 0xF3, 0xFB, 0xF8, 0xF7, 0xE6, 0xE3, 0xF8, 0x22, 0x27, 0x1B, 0x09, 
	0xE5, 0xC9, 0xD5, 0xDA, 0xC9, 0xD8, 0xD2, 0x25, 0xFE, 0xFC, 0x01, 0x09, 0x02, 0xFE, 0x00, 0x06, 
	0x09, 0x04, 0x07, 0x02, 0x05, 0x05, 0x01, 0x00, 0x05, 0xFE, 0xFE, 0xF7, 0xF5, 0x02, 0x07, 0xFC, 
	0xF9, 0x0B, 0x0C, 0x01, 0xF9, 0x07, 0x11, 0xFE, 0x05, 0x08, 0x0C, 0x01, 0xEF, 0xEF, 0x00, 0xE5, 
	0xF5, 0x09, 0xFA, 0xFA, 0xF5, 0xFF, 0xFA, 0xF7, 0xFE, 0xF9, 0xFB, 0xF7, 0xF4, 0xF6, 0xF5, 0xF7, 
	0xF9, 0xFC, 0x00, 0x02, 0x02, 0x04, 0xFB, 0x0F, 0x0D, 0xF7, 0xF7, 0x04, 0xF0, 0xE9, 0xF0, 0xC7, 
	0xB3, 0xC5, 0xD7, 0xFB, 0x07, 0x50, 0x6B, 0x7F, 0x06, 0xF8, 0xFC, 0x07, 0x04, 0x06, 0x00, 0x02, 
	0x00, 0x0D, 0x07, 0x03, 0x00, 0xFB, 0x04, 0x03, 0x05, 0xFD, 0xFB, 0xFC, 0x07, 0x09, 0x09, 0x19, 
	0x0A, 0xEF, 0xF2, 0x07, 0x1A, 0xF8, 0xDF, 0xE8, 0x1B, 0x04, 0xE3, 0xF6, 0xF8, 0x13, 0x19, 0xFD, 
	0xFD, 0xFF, 0xFA, 0xFB, 0xEF, 0x05, 0xF9, 0x03, 0x02, 0xFB, 0xFC, 0x05, 0xFF, 0xFA, 0xFF, 0xFF, 
	0x07, 0x00, 0x08, 0x00, 0x00, 0x00, 0xFE, 0xFF, 0x02, 0xFB, 0xFE, 0xFA, 0xFD, 0x01, 0x01, 0x04, 
	0x06, 0x00, 0x04, 0xFF, 0x00, 0xFC, 0x06, 0xFC, 0x04, 0x09, 0xE5, 0x0F, 0xFA, 0x26, 0x7F, 0x5D, 
	0x01, 0xA8, 0xDA, 0x16, 0x1A, 0xF7, 0xEF, 0xF4, 0x03, 0xFD, 0xFD, 0xF0, 0xFD, 0xFE, 0x04, 0x03, 
	0x02, 0xFE, 0xFF, 0x01, 0x04, 0x03, 0xFC, 0xF9, 0xFF, 0xF2, 0xF6, 0x05, 0x03, 0x02, 0x05, 0x02, 
	0xFF, 0x03, 0xF4, 0xF0, 0xFE, 0xF8, 0xFC, 0x06, 0x09, 0xF6, 0xF3, 0xFD, 0x01, 0xFB, 0xFB, 0xFE, 
	0x02, 0xFD, 0xFF, 0xFB, 0x01, 0x03, 0xFF, 0xFA, 0x02, 0x05, 0x00, 0x01, 0x00, 0xFE, 0x01, 0xFF, 
	0x04, 0xFE, 0x00, 0xFE, 0x03, 0x05, 0x00, 0xFF, 0x03, 0xFA, 0x06, 0xFD, 0xE0, 0xF0, 0x09, 0x03, 
	0x07, 0x03, 0xFC, 0xFF, 0xFF, 0xFD, 0x00, 0x00, 0x04, 0xFF, 0xFE, 0xFE, 0x00, 0x01, 0xFE, 0x00, 
	0x02, 0x06, 0x01, 0x02, 0x01, 0xFE, 0xFE, 0x01, 0x01, 0xFF, 0xFE, 0x01, 0x00, 0x00, 0x03, 0xFF, 
	0xFF, 0xFB, 0x06, 0x07, 0xDE, 0xE7, 0x02, 0x00, 0x01, 0xFB, 0x00, 0xFE, 0x01, 0xFE, 0xFD, 0x01, 
	0x02, 0x00, 0x00, 0xFF, 0x00, 0x02, 0x01, 0x01, 0xFC, 0xFE, 0xFD, 0xFD, 0x04, 0x00, 0x00, 0x00, 
	0x04, 0x02, 0x00, 0xFF, 0x01, 0xFF, 0xFF, 0x03, 0xF4, 0x13, 0xF2, 0xFC, 0x7F, 0x14, 0xF3, 0xEE, 
	0x00, 0x01, 0x02, 0xFD, 0x02, 0x05, 0x00, 0xFF, 0xFF, 0xFF, 0x02, 0x00, 0x02, 0x00, 0xFE, 0x00, 
	0x01, 0x02, 0xFE, 0xFE, 0x00, 0xFE, 0xFF, 0xFD, 0xFF, 0xFF, 0x00, 0x01, 0x03, 0xFF, 0xF9, 0x00, 
	0x09, 0xF0, 0xE8, 0xDC, 0xFA, 0xEF, 0xD5, 0xB2, 0xB0, 0xC2, 0xCB, 0xDF, 0xDC, 0xE0, 0xD8, 0xF7, 
	0xF7, 0x04, 0xFA, 0x03, 0x10, 0x0D, 0xF7, 0xF4, 0xF6, 0x00, 0xF9, 0xF3, 0x01, 0xF3, 0xF7, 0xE3, 
	0xF7, 0xFF, 0x0B, 0x14, 0x1A, 0x0E, 0xEC, 0x10, 0xEC, 0x0B, 0x0C, 0xF1, 0xE5, 0xE0, 0xE7, 0xE0, 
	0xD5, 0xDA, 0xDA, 0xF8, 0x0B, 0x24, 0x1A, 0xF6, 0xFF, 0x13, 0x15, 0xFA, 0xEF, 0xFA, 0x0C, 0xFB, 
	0xE9, 0xF7, 0xFE, 0x06, 0x24, 0x12, 0xF6, 0xFE, 0x0E, 0x04, 0x10, 0x07, 0xFE, 0xED, 0xDF, 0x0F, 
	0xE3, 0x08, 0xFC, 0x29, 0x16, 0x16, 0x68, 0x7F, 0x71, 0x75, 0x60, 0x3D, 0x2B, 0x21, 0x1D, 0xFD, 
	0xF1, 0xF9, 0xEE, 0xF5, 0xF9, 0x19, 0x2C, 0x0F, 0xFD, 0x0C, 0x0F, 0x00, 0xF7, 0xEB, 0xDE, 0x1C, 
	0x02, 0xE7, 0x04, 0xE7, 0xEB, 0x27, 0xD7, 0x0F, 0xFD, 0x0F, 0x06, 0xF8, 0xF3, 0xF8, 0xFE, 0x07, 
	0x10, 0x18, 0x10, 0xFA, 0xFA, 0x26, 0x72, 0x7F, 0x27, 0xB7, 0xA5, 0xC4, 0xE3, 0xE6, 0xF0, 0x0B, 
	0x0B, 0xF8, 0xEC, 0xFB, 0x0D, 0x05, 0xF4, 0xE9, 0xF4, 0xFE, 0xFC, 0x08, 0x07, 0x0E, 0xF5, 0xF7, 
	0xF9, 0x0A, 0xFB, 0x01, 0xFD, 0xF9, 0xFF, 0x00, 0x08, 0x07, 0x02, 0x05, 0xFB, 0xF1, 0xEB, 0x13, 
	0x49, 0x37, 0xFF, 0xDD, 0xE8, 0x03, 0x08, 0xFC, 0xF4, 0xF8, 0xFD, 0xF9, 0xFC, 0x08, 0xFE, 0xFE, 
	0x05, 0x02, 0x03, 0xFB, 0xF9, 0x0B, 0xFD, 0xFA, 0xF1, 0x0B, 0x01, 0xFF, 0xFB, 0xFE, 0xFF, 0xFE, 
	0xFC, 0xFB, 0xF7, 0xF4, 0xF3, 0xF0, 0xE4, 0xEC, 0xFC, 0x0B, 0x13, 0x0D, 0x09, 0x09, 0x0B, 0x01, 
	0xFA, 0x0A, 0x0A, 0x00, 0x02, 0xFA, 0x03, 0x05, 0x06, 0xFE, 0x02, 0xF9, 0x00, 0x06, 0xFC, 0x09, 
	0x02, 0xFE, 0xFE, 0x0D, 0x05, 0xF7, 0xF8, 0xF2, 0xF9, 0x04, 0x0D, 0x11, 0x06, 0xFA, 0xF9, 0xF9, 
	0x05, 0xFD, 0x09, 0x1C, 0x2C, 0x48, 0x33, 0xEF, 0xD4, 0xD9, 0xF0, 0xF3, 0xE7, 0xF6, 0xF8, 0xEB, 
	0xF8, 0x09, 0xF7, 0xF9, 0x01, 0xF7, 0xF4, 0x09, 0x07, 0xFA, 0xF2, 0x02, 0x11, 0x03, 0xFF, 0xF5, 
	0xFD, 0x08, 0x0B, 0xFB, 0xED, 0xE9, 0xE9, 0xE4, 0xE8, 0xEC, 0xF0, 0xD1, 0x81, 0x8B, 0x25, 0x4D, 
	0x07, 0x1D, 0x42, 0x3F, 0x24, 0x22, 0x15, 0x1E, 0x15, 0x0C, 0x00, 0x12, 0x0B, 0xF3, 0x0A, 0x05, 
	0x07, 0xF8, 0xF8, 0x0D, 0x11, 0x0A, 0x00, 0x03, 0x07, 0x0C, 0x10, 0xFB, 0xF3, 0xE4, 0xE0, 0xEE, 
	0xF0, 0xEE, 0xF3, 0xE4, 0xC2, 0xD3, 0x11, 0x3C, 0x1D, 0x15, 0x1B, 0x02, 0x08, 0xFF, 0x03, 0x15, 
	0x0E, 0x0C, 0xFE, 0x0A, 0x04, 0xE6, 0x08, 0x06, 0x00, 0x27, 0xDA, 0xDD, 0xFE, 0xFE, 0x2A, 0x05, 
	0x10, 0xD3, 0xE9, 0x12, 0x28, 0xE7, 0x01, 0x0D, 0xE8, 0x07, 0xF8, 0x01, 0x0C, 0xF0, 0x08, 0xF9, 
	0x04, 0xF9, 0xFB, 0x05, 0xFF, 0x04, 0xFC, 0xFF, 0x0A, 0x03, 0x02, 0x02, 0x00, 0x02, 0x04, 0x00, 
	0x04, 0x32, 0xCD, 0xDD, 0xF3, 0xE4, 0x72, 0x08, 0xE1, 0xA7, 0xFC, 0x7F, 0xD6, 0xD5, 0x2D, 0xE3, 
	0x0A, 0x03, 0xEE, 0x28, 0xEA, 0x07, 0x06, 0xFA, 0x09, 0xF1, 0x0C, 0xFE, 0x0B, 0x00, 0x01, 0x08, 
	0x07, 0x02, 0x01, 0xFC, 0xF7, 0xF4, 0xFD, 0x09, 0xFE, 0x1C, 0xC3, 0xE7, 0xF6, 0x43, 0x15, 0xD6, 
	0xD3, 0x00, 0x46, 0xF3, 0xEC, 0x05, 0xFD, 0x04, 0x13, 0xEF, 0x0E, 0xFC, 0x01, 0x03, 0x05, 0xFE, 
	0xFF, 0xF6, 0x00, 0x03, 0x09, 0xFB, 0xFB, 0x07, 0x0B, 0x01, 0x0C, 0x02, 0xFC, 0xFF, 0x00, 0xFF, 
	0xFD, 0x04, 0x04, 0x0F, 0xEE, 0xF9, 0xF9, 0x04, 0x01, 0x05, 0xFA, 0xF8, 0xFF, 0x02, 0x00, 0xFA, 
	0xF8, 0x02, 0x0C, 0x0E, 0xFE, 0xEE, 0xFF, 0x2F, 0x49, 0x46, 0xB4, 0xA8, 0xE4, 0x11, 0x0D, 0xE5, 
	0xF7, 0x10, 0xFE, 0xF7, 0x17, 0x0E, 0x02, 0xE5, 0xFC, 0x13, 0x04, 0x0A, 0xFD, 0xF9, 0xFB, 0xFF, 
	0x03, 0x02, 0xFB, 0xFC, 0xFC, 0xFD, 0xFD, 0xFF, 0x06, 0x07, 0x0A, 0x05, 0xFE, 0x01, 0x10, 0x20, 
	0x3C, 0x54, 0xBE, 0x81, 0xD6, 0x11, 0x24, 0xD4, 0xE6, 0x19, 0x0F, 0xEC, 0x08, 0x16, 0x01, 0xF3, 
	0xF7, 0x06, 0x07, 0x04, 0xF3, 0xFC, 0xFA, 0x06, 0x03, 0x07, 0xFD, 0x03, 0x00, 0x01, 0xFA, 0xFE, 
	0xFF, 0x06, 0x0A, 0x04, 0xF6, 0xFF, 0x02, 0x03, 0xFB, 0x2A, 0x16, 0xEC, 0xE1, 0x00, 0x1D, 0xFC, 
	0xEF, 0xF6, 0x0F, 0xFE, 0xF1, 0xF9, 0xFF, 0x09, 0x04, 0xC7, 0x3A, 0x12, 0xDA, 0x0B, 0x03, 0xF0, 
	0x0B, 0xF5, 0x02, 0x03, 0xFB, 0x02, 0x05, 0xFA, 0x05, 0xFE, 0x02, 0x01, 0x00, 0xFE, 0x02, 0xFE, 
	0xFE, 0x00, 0xFE, 0xFF, 0x00, 0x03, 0x01, 0x00, 0xFF, 0xFE, 0x00, 0x02, 0x00, 0x03, 0x01, 0xFC, 
	0xF6, 0xB7, 0x7F, 0x2C, 0xBA, 0x05, 0x00, 0xEB, 0x16, 0x00, 0xF7, 0x09, 0xFB, 0x05, 0xFF, 0x00, 
	0xFF, 0x01, 0x02, 0x02, 0xFF, 0xFE, 0x02, 0x02, 0x00, 0x02, 0x01, 0xFF, 0x00, 0x00, 0x00, 0x00, 
	0x00, 0xFE, 0xFE, 0x01, 0x01, 0x02, 0x03, 0xFF, 0xFB, 0xE1, 0x2A, 0xFE, 0xF3, 0x08, 0xF9, 0x06, 
	0xFF, 0xFF, 0x02, 0x00, 0xFC, 0x03, 0x01, 0x01, 0xFE, 0x01, 0xFF, 0x00, 0x01, 0xFE, 0xFF, 0x00, 
	0x01, 0x00, 0x01, 0x01, 0xFE, 0x01, 0x00, 0x02, 0xFE, 0xFF, 0x00, 0x01, 0x00, 0x02, 0xFF, 0xFE, 
	0x03, 0x2D, 0xC9, 0x02, 0xEB, 0x0D, 0x15, 0x32, 0xEB, 0xB0, 0x2D, 0x38, 0xCD, 0xF6, 0x1E, 0xFA, 
	0xE7, 0x11, 0xFA, 0xFD, 0xFD, 0xFB, 0x06, 0x04, 0x00, 0xFD, 0xFA, 0xF9, 0x01, 0xFF, 0xFC, 0xFC, 
	0x04, 0x07, 0xF7, 0x0A, 0x0A, 0x08, 0x04, 0x05, 0x0B, 0x0F, 0xC4, 0xDC, 0xDB, 0x78, 0x11, 0xB2, 
	0x9A, 0x7F, 0x38, 0x8E, 0x00, 0x58, 0xAC, 0x2C, 0xF5, 0x0C, 0xF1, 0x0B, 0xF7, 0x1B, 0xF4, 0xFD, 
	0xF9, 0xFD, 0x08, 0x12, 0x04, 0xFD, 0x03, 0x0A, 0x03, 0x05, 0x06, 0xF1, 0xF1, 0xF8, 0xF8, 0x07, 
	0x08, 0xDB, 0xDD, 0x12, 0x40, 0x30, 0xA4, 0xC8, 0x3A, 0x5E, 0xAF, 0xE4, 0x55, 0xD3, 0xFA, 0x19, 
	0xF2, 0x05, 0xFD, 0x03, 0x00, 0x01, 0x02, 0xFB, 0x01, 0xF4, 0xFC, 0x10, 0x03, 0xF3, 0xFB, 0x0A, 
	0x03, 0x0D, 0x07, 0x00, 0xFE, 0xFD, 0xFF, 0x05, 0x27, 0x2A, 0xFC, 0x09, 0x04, 0xE0, 0x05, 0x05, 
	0x1C, 0x1C, 0x16, 0x2C, 0x4B, 0x63, 0x7F, 0x60, 0x3F, 0x30, 0x1F, 0x1F, 0x13, 0x0E, 0x02, 0x0F, 
	0x15, 0x0D, 0x09, 0xFA, 0xF6, 0x07, 0xFD, 0xD8, 0xF2, 0x0A, 0x01, 0xF6, 0xF7, 0xF3, 0x29, 0xCE, 
	0xE8, 0xEF, 0xF8, 0xEE, 0x1D, 0xF3, 0x10, 0xFA, 0xEF, 0xDD, 0xDD, 0xCF, 0xC4, 0xA9, 0x9A, 0xA6, 
	0xB6, 0xD4, 0xD9, 0xED, 0xE8, 0xE9, 0xEC, 0xD5, 0xF1, 0xF6, 0x01, 0x01, 0xF7, 0xFB, 0x13, 0x1D, 
	0x26, 0x10, 0xF8, 0xFC, 0x00, 0xFF, 0x16, 0x17, 0xDC, 0xF3, 0x1E, 0xCF, 0x05, 0x0B, 0xF8, 0x08, 
	0xFD, 0xFE, 0xFA, 0xEE, 0xF0, 0xFE, 0xFB, 0xF8, 0xF4, 0x0C, 0x08, 0x01, 0xFD, 0xFA, 0x0E, 0x08, 
	0x0C, 0xFB, 0xF9, 0x04, 0xFF, 0x00, 0x07, 0xFF, 0xF8, 0xF5, 0xFC, 0xFC, 0x08, 0xF9, 0x16, 0xF0, 
	0x45, 0x09, 0x49, 0x38, 0x2F, 0x7F, 0x61, 0x6C, 0x41, 0x35, 0x32, 0x30, 0x1D, 0x17, 0x06, 0x11, 
	0xF8, 0xFE, 0x04, 0x04, 0x01, 0x05, 0xF8, 0xF8, 0x06, 0x07, 0x11, 0x11, 0x03, 0x03, 0xF6, 0xF9, 
	0xFC, 0xFB, 0xED, 0xEF, 0xFA, 0xF0, 0xE9, 0x22, 0xF3, 0xC0, 0xAF, 0xBA, 0x8D, 0x91, 0x9B, 0xC8, 
	0xD5, 0xD6, 0xD7, 0xD9, 0xCD, 0xE7, 0xF0, 0xFD, 0xFC, 0x00, 0x03, 0x02, 0x00, 0xF6, 0xF0, 0x0C, 
	0xEC, 0xF5, 0x06, 0xFA, 0x0A, 0x0E, 0xFF, 0xF2, 0xF1, 0x04, 0x09, 0xF4, 0x02, 0xEF, 0x09, 0x1B, 
	0xFA, 0x05, 0xFB, 0x08, 0xF0, 0xF7, 0x0F, 0x08, 0x09, 0xEF, 0xFE, 0x01, 0x00, 0xEE, 0xF9, 0x05, 
	0x18, 0x0C, 0x06, 0xFD, 0x08, 0x0D, 0x09, 0x12, 0x0B, 0x0E, 0x05, 0xE6, 0xEF, 0xEF, 0xF8, 0x0C, 
	0x13, 0x00, 0x06, 0x06, 0x0A, 0x01, 0xF6, 0xE8, 0x0E, 0xFE, 0xF0, 0xF3, 0x1A, 0x0C, 0xE0, 0xDA, 
	0x40, 0x03, 0xC7, 0x39, 0xDD, 0x00, 0x0E, 0xF5, 0x09, 0xF7, 0x02, 0x01, 0x01, 0xFF, 0x03, 0x01, 
	0x00, 0xFE, 0xFF, 0x01, 0xFF, 0xFC, 0xFF, 0x02, 0x06, 0x03, 0x01, 0xFD, 0x01, 0x03, 0x03, 0x00, 
	0x09, 0xF9, 0xDB, 0x18, 0x1C, 0xE8, 0x96, 0x7F, 0x20, 0x86, 0x5E, 0xEE, 0xCE, 0x4E, 0xC9, 0x20, 
	0xEF, 0x0B, 0xFE, 0x00, 0x03, 0xFD, 0x02, 0xFF, 0xFD, 0xFE, 0x04, 0x06, 0xFE, 0xFC, 0x03, 0x02, 
	0xFE, 0x06, 0x03, 0xFA, 0xFB, 0xFC, 0xF8, 0x0C, 0xFD, 0xEC, 0x05, 0x19, 0x09, 0xC9, 0x0F, 0x4D, 
	0xB1, 0x06, 0x22, 0xD9, 0x22, 0xF7, 0xF9, 0x0B, 0xFB, 0x05, 0xFB, 0x06, 0xFC, 0x02, 0x03, 0xFE, 
	0xFE, 0x00, 0x01, 0x03, 0xFF, 0xFE, 0xFF, 0xFF, 0x01, 0x01, 0x02, 0x01, 0xFE, 0x01, 0xFE, 0x05, 
	0xFD, 0x01, 0x08, 0xFF, 0x07, 0xF3, 0xF2, 0xED, 0x19, 0x3A, 0x05, 0xD6, 0xE6, 0x03, 0xFF, 0xF7, 
	0xEF, 0xEE, 0xF5, 0x04, 0x02, 0x05, 0x00, 0xF9, 0x06, 0x00, 0xFD, 0x00, 0x11, 0x05, 0x00, 0x07, 
	0x18, 0x0F, 0xE5, 0xFC, 0x04, 0xFA, 0x09, 0x1A, 0xEF, 0xFD, 0x02, 0x10, 0x07, 0xFC, 0xB3, 0x97, 
	0xA9, 0x04, 0x70, 0x7F, 0x2A, 0x13, 0x2F, 0x22, 0x11, 0x00, 0x1B, 0x0C, 0xF7, 0xE8, 0xF6, 0xEE, 
	0x08, 0x03, 0xF9, 0xEC, 0x04, 0x1D, 0x06, 0xDE, 0xD8, 0x15, 0x2B, 0x19, 0x0A, 0xE6, 0xEA, 0xDB, 
	0xF4, 0xF5, 0x11, 0x14, 0x0F, 0xF0, 0xDB, 0xCA, 0xF0, 0x1F, 0x24, 0x17, 0x02, 0x02, 0x0D, 0xF8, 
	0xF1, 0xFD, 0x0B, 0x10, 0x01, 0xFE, 0x0A, 0x04, 0x00, 0xFF, 0xF6, 0xF0, 0xEE, 0x01, 0xFC, 0xF5, 
	0xF7, 0x09, 0xFE, 0xFC, 0x00, 0xF3, 0x09, 0xEE, 0x05, 0xF8, 0x04, 0x02, 0xF8, 0x03, 0xEF, 0xFE, 
	0xF7, 0xFA, 0xF7, 0xFD, 0xFD, 0xFB, 0x01, 0x05, 0x07, 0xF9, 0xF2, 0x01, 0x05, 0xFD, 0xF9, 0xE7, 
	0xE9, 0xF8, 0x19, 0x48, 0x62, 0x57, 0x24, 0xA7, 0x81, 0xD1, 0x0C, 0x09, 0xFA, 0xF6, 0xF8, 0x16, 
	0x06, 0xEF, 0xFB, 0x0B, 0xF9, 0xFC, 0xF6, 0x01, 0xFC, 0xFE, 0xF9, 0xF9, 0x00, 0xFD, 0xFC, 0xFF, 
	0x01, 0x07, 0x03, 0x03, 0xF6, 0xFC, 0x02, 0xEC, 0xD7, 0xE9, 0x28, 0x4B, 0x54, 0x5B, 0x12, 0x9B, 
	0x9E, 0xEE, 0x12, 0x16, 0x0D, 0x0A, 0xF8, 0x0E, 0xFF, 0x08, 0x09, 0xFF, 0x02, 0x06, 0xFD, 0x09, 
	0x00, 0xFA, 0xFD, 0xFD, 0xFD, 0x07, 0x0D, 0xFE, 0x01, 0x06, 0x07, 0xFE, 0xFB, 0xFE, 0x0C, 0x02, 
	0xF7, 0x02, 0xFA, 0xE8, 0xE9, 0x10, 0x11, 0xF3, 0xF6, 0x06, 0x0E, 0xFC, 0x03, 0x0F, 0xFB, 0xED, 
	0xF7, 0x10, 0xF2, 0xDC, 0xFD, 0x03, 0x01, 0x00, 0x00, 0xFE, 0x01, 0xFF, 0x01, 0x01, 0xFD, 0x01, 
	0xFF, 0x02, 0x00, 0x00, 0xFF, 0x01, 0x01, 0x00, 0xFE, 0xFF, 0xFE, 0xFE, 0x04, 0x01, 0x01, 0x01, 
	0x00, 0xFE, 0x00, 0x01, 0x00, 0x00, 0xFF, 0x01, 0x03, 0xFB, 0xF8, 0x7F, 0xEB, 0xF6, 0x04, 0x01, 
	0xFE, 0x06, 0xFE, 0x00, 0xFF, 0x00, 0x00, 0x01, 0xFF, 0x00, 0x00, 0x00, 0xFF, 0xFF, 0xFE, 0x02, 
	0x03, 0x05, 0x02, 0xFC, 0xFF, 0xFF, 0xFF, 0xFE, 0xFE, 0xFF, 0x01, 0x00, 0x00, 0x00, 0x01, 0xFE, 
	0xFC, 0x06, 0xF2, 0xFA, 0xFE, 0x01, 0xFD, 0xFD, 0x01, 0xFF, 0x00, 0xFF, 0x00, 0x00, 0x00, 0xFF, 
	0x00, 0x02, 0x00, 0xFF, 0xFE, 0x00, 0x01, 0x01, 0xFE, 0x01, 0xFF, 0xFE, 0x01, 0x02, 0x00, 0x00, 
	0x00, 0xFF, 0x00, 0x00, 0x00, 0xFF, 0x01, 0xFD, 0x0C, 0xFE, 0xFB, 0x03, 0xF6, 0x02, 0x0F, 0x08, 
	0x0C, 0xFD, 0x09, 0x01, 0xF1, 0xEF, 0xED, 0xE3, 0xE7, 0xF3, 0xF0, 0xF9, 0xE2, 0xD5, 0xC9, 0x84, 
	0x81, 0xC2, 0x2A, 0x7C, 0x7B, 0x64, 0x28, 0x36, 0x43, 0x29, 0x14, 0x0C, 0x0D, 0xFA, 0xE0, 0xAA, 
	0x0C, 0x10, 0x08, 0xF9, 0xF4, 0xF8, 0xFF, 0x06, 0x01, 0xFD, 0xFC, 0x01, 0xF9, 0xF2, 0xF3, 0xEB, 
	0xED, 0xF1, 0xF7, 0x06, 0x0D, 0x05, 0xDE, 0xB5, 0xCD, 0x12, 0x18, 0x2E, 0x35, 0x0D, 0x17, 0x1C, 
	0x09, 0xF8, 0x0C, 0xFC, 0xEC, 0x11, 0xEA, 0x10, 0x09, 0xE5, 0xF1, 0xFB, 0xF3, 0xF5, 0x0C, 0x09, 
	0x08, 0x0B, 0x08, 0x04, 0x02, 0xF9, 0xF2, 0xFC, 0x07, 0x08, 0x0C, 0x12, 0x09, 0x00, 0x01, 0x0A, 
	0x15, 0x14, 0x10, 0xFF, 0xD7, 0xC3, 0xED, 0x0C, 0x03, 0xF0, 0x02, 0xF9, 0xEF, 0x0D, 0xF5, 0x2D, 
	0xFB, 0x04, 0xD5, 0xE6, 0x06, 0x02, 0xEE, 0xD1, 0xBC, 0xFB, 0xF9, 0x06, 0x09, 0xF4, 0xD2, 0x19, 
	0xF8, 0xEE, 0x00, 0x08, 0xF8, 0xFF, 0x04, 0xF9, 0xFA, 0xEE, 0xFE, 0xFC, 0x0F, 0x01, 0x04, 0x05, 
	0xF2, 0x06, 0x05, 0xF9, 0x0D, 0xF8, 0x09, 0xFE, 0xF5, 0x02, 0xE5, 0x01, 0x01, 0x91, 0xF0, 0xFF, 
	0x02, 0x01, 0x02, 0x0F, 0xB9, 0x31, 0x02, 0xFF, 0xDA, 0x10, 0xFE, 0xF5, 0x0C, 0x05, 0x02, 0xFF, 
	0x12, 0x0A, 0x0A, 0xFC, 0xF5, 0x0A, 0x18, 0xFD, 0xBE, 0xD9, 0xF6, 0x02, 0x9F, 0x0D, 0x0F, 0x10, 
	0xFF, 0x08, 0x97, 0x05, 0x03, 0xFE, 0x10, 0x07, 0xE4, 0xF2, 0xE9, 0xAF, 0xF5, 0x0C, 0x00, 0xDF, 
	0x01, 0x1A, 0xF4, 0xC1, 0xED, 0xF9, 0xF5, 0xFA, 0xFE, 0x06, 0xFE, 0x06, 0xDE, 0xFC, 0xE6, 0xE8, 
	0x01, 0x0C, 0x1D, 0x07, 0x0D, 0x0A, 0xF8, 0x07, 0x0D, 0xF3, 0xE9, 0x16, 0x09, 0xFE, 0xFD, 0xFC, 
	0xFD, 0xDE, 0xCF, 0xD3, 0x05, 0xF5, 0x06, 0xB9, 0x91, 0xFA, 0xE9, 0x06, 0xFE, 0x08, 0xC7, 0x20, 
	0x16, 0xEA, 0x05, 0xEB, 0xFC, 0xFF, 0xBB, 0xF9, 0x02, 0x2A, 0x03, 0xFE, 0x15, 0xFF, 0xFB, 0xF9, 
	0xE9, 0x02, 0xF9, 0xE4, 0x00, 0xF2, 0xF0, 0x07, 0x06, 0x0E, 0xEC, 0xF0, 0xEB, 0xE6, 0xF2, 0x00, 
	0x06, 0xF7, 0xFA, 0x04, 0xE4, 0x39, 0xF7, 0x06, 0xE5, 0xF7, 0xFC, 0xEE, 0x00, 0xFC, 0xFA, 0x03, 
	0x02, 0x0A, 0x0C, 0x01, 0xEA, 0x09, 0x0C, 0xFF, 0xE3, 0xC5, 0xF6, 0xF9, 0xE0, 0x12, 0x1B, 0x02, 
	0x05, 0xFD, 0x81, 0x02, 0x07, 0x07, 0x20, 0xF1, 0xA7, 0xF7, 0xE8, 0xA3, 0xFB, 0x00, 0x01, 0x03, 
	0x04, 0x0A, 0x03, 0xB7, 0xD3, 0xED, 0xEE, 0x07, 0x04, 0xF0, 0x05, 0xEA, 0xA7, 0x0F, 0x16, 0xF8, 
	0xF3, 0x09, 0xF4, 0xF8, 0x00, 0x05, 0x0F, 0x01, 0x02, 0xE2, 0xEE, 0x02, 0x11, 0x08, 0xFF, 0xE4, 
	0xF6, 0xFF, 0x26, 0xA6, 0xFE, 0xE2, 0xFD, 0xFE, 0xF8, 0x0B, 0x4A, 0xEA, 0x01, 0xFE, 0xFE, 0x06, 
	0x0A, 0xF4, 0x02, 0x08, 0xF9, 0xE5, 0x02, 0xFF, 0xFA, 0x00, 0xEF, 0xF8, 0x01, 0x06, 0x00, 0x10, 
	0x0C, 0x56, 0xFE, 0xFD, 0x14, 0x02, 0x01, 0x14, 0xFC, 0xC8, 0xE9, 0xF0, 0xFA, 0xFA, 0x01, 0xFA, 
	0xFD, 0x0A, 0x13, 0x18, 0xF6, 0x08, 0x0D, 0xE8, 0xEC, 0x09, 0x02, 0xFD, 0xFD, 0x08, 0xF5, 0x7F, 
	0x10, 0x1B, 0x39, 0x0B, 0xFD, 0x1A, 0x01, 0x00, 0x01, 0x15, 0x0D, 0x19, 0x02, 0xB0, 0x08, 0xFE, 
	0xFC, 0x0B, 0xFA, 0x12, 0x00, 0x00, 0x20, 0xEF, 0x02, 0x05, 0xEB, 0x0B, 0x01, 0x1A, 0x71, 0x0E, 
	0xFF, 0xFC, 0x02, 0x25, 0xFA, 0xF6, 0xF5, 0x01, 0x11, 0x0C, 0x17, 0x10, 0x0E, 0xE6, 0x0E, 0xFD, 
	0x14, 0x9F, 0xD3, 0xFB, 0x00, 0x0D, 0xF9, 0xF9, 0x1A, 0x07, 0x03, 0x05, 0xF5, 0x05, 0xEE, 0xF1, 
	0xFD, 0x00, 0xFD, 0x61, 0x00, 0x0D, 0x01, 0xF5, 0xF7, 0xFE, 0xA8, 0x15, 0xFE, 0xFC, 0xFE, 0xFC, 
	0xFC, 0x0E, 0xFA, 0xF8, 0x06, 0xBF, 0x05, 0xFE, 0x05, 0x08, 0x08, 0x02, 0x00, 0x04, 0xFE, 0xFA, 
	0xFF, 0x05, 0x0A, 0xFF, 0xF3, 0xFF, 0x00, 0xFA, 0xFF, 0x2B, 0x0E, 0x17, 0xFF, 0x0F, 0xF8, 0xFC, 
	0x00, 0xF6, 0xD9, 0xCD, 0xF5, 0xF1, 0xFC, 0xFF, 0x16, 0xF6, 0xF8, 0x03, 0xDB, 0xDB, 0x0B, 0xF5, 
	0xD0, 0xF3, 0xF1, 0xFA, 0x02, 0xF3, 0x06, 0xFE, 0xFF, 0xF3, 0xF6, 0xF0, 0x01, 0x28, 0xF1, 0x04, 
	0x05, 0xD4, 0x00, 0xF5, 0x04, 0xFF, 0xEA, 0x03, 0x0E, 0xF7, 0x01, 0xF8, 0x02, 0xBF, 0x05, 0xFA, 
	0x01, 0xFD, 0x02, 0xE6, 0xFB, 0x08, 0x0D, 0x02, 0xF4, 0xE7, 0xEA, 0xFB, 0x0E, 0xF6, 0x06, 0x00, 
	0x01, 0x02, 0xFA, 0xFF, 0x05, 0xEC, 0x04, 0x00, 0xF8, 0x16, 0xF3, 0xEA, 0x05, 0xFA, 0x00, 0x06, 
	0xF7, 0xC3, 0xFA, 0x1C, 0xFD, 0xF8, 0x09, 0x1A, 0x40, 0xF9, 0xA2, 0xF2, 0x05, 0xF7, 0x18, 0xF9, 
	0x12, 0x06, 0xF8, 0x32, 0xED, 0xF4, 0xF4, 0xE5, 0x19, 0x2E, 0xE1, 0x12, 0xE9, 0x06, 0xF0, 0xA0, 
	0xF5, 0xE9, 0x08, 0x0C, 0x02, 0x07, 0x0E, 0xD7, 0xF3, 0xD4, 0xD7, 0xAD, 0x28, 0xFC, 0xDC, 0xF5, 
	0xD9, 0xFA, 0xD5, 0x9C, 0x09, 0x2A, 0xC2, 0x89, 0xEA, 0x0A, 0xD5, 0xE3, 0xE2, 0x81, 0xFC, 0x32, 
	0xC2, 0xD6, 0x8F, 0xC8, 0xCF, 0xCD, 0x25, 0x02, 0xE3, 0x99, 0x08, 0xFF, 0x3D, 0x10, 0x96, 0x87, 
	0xDF, 0x94, 0x10, 0xF7, 0xE6, 0xF1, 0xBC, 0xF4, 0x3D, 0xDF, 0x68, 0x28, 0xE5, 0xC6, 0xFA, 0xD3, 
	0xEC, 0x18, 0x12, 0xE8, 0x15, 0xD7, 0xE6, 0xF5, 0xC2, 0x15, 0x88, 0xF9, 0xEA, 0x8D, 0xD8, 0x28, 
	0xC8, 0x20, 0x79, 0xE1, 0xF9, 0xC8, 0x01, 0xE9, 0xE4, 0xAB, 0x89, 0xDB, 0xF2, 0x0D, 0x37, 0x1B, 
	0x03, 0xE0, 0xEE, 0xBA, 0xF6, 0xFF, 0x12, 0x03, 0x01, 0x12, 0xDE, 0xE7, 0x02, 0x0B, 0x1E, 0xD4, 
	0x28, 0x1A, 0xFE, 0x15, 0xF1, 0x07, 0xE3, 0xEA, 0x00, 0x0D, 0xF1, 0xF4, 0xED, 0xF4, 0xF0, 0xF7, 
	0x08, 0x0D, 0x15, 0x1A, 0xF3, 0xF8, 0x0C, 0x12, 0xF4, 0xF1, 0xE2, 0xE6, 0x33, 0xD9, 0xF1, 0x32, 
